{
  "version": "1.0",
  "truncation": null,
  "padding": null,
  "added_tokens": [
    {
      "id": 0,
      "content": "<|endoftext|>",
      "single_word": false,
      "lstrip": false,
      "rstrip": false,
      "normalized": false,
      "special": true
    }
  ],
  "normalizer": null,
  "pre_tokenizer": {
    "type": "ByteLevel",
    "add_prefix_space": false,
    "trim_offsets": true,
    "use_regex": false
  },
  "post_processor": null,
  "decoder": null,
  "model": {
    "type": "BPE",
    "dropout": null,
    "unk_token": null,
    "continuing_subword_prefix": null,
    "end_of_word_suffix": null,
    "fuse_unk": false,
    "byte_fallback": false,
    "ignore_merges": false,
    "vocab": {
      "<|endoftext|>": 0,
      "!": 1,
      "\"": 2,
      "#": 3,
      "$": 4,
      "%": 5,
      "&": 6,
      "'": 7,
      "(": 8,
      ")": 9,
      "*": 10,
      "+": 11,
      ",": 12,
      "-": 13,
      ".": 14,
      "/": 15,
      "0": 16,
      "1": 17,
      "2": 18,
      "3": 19,
      "4": 20,
      "5": 21,
      "6": 22,
      "7": 23,
      "8": 24,
      "9": 25,
      ":": 26,
      ";": 27,
      "<": 28,
      "=": 29,
      ">": 30,
      "?": 31,
      "@": 32,
      "A": 33,
      "B": 34,
      "C": 35,
      "D": 36,
      "E": 37,
      "F": 38,
      "G": 39,
      "H": 40,
      "I": 41,
      "J": 42,
      "K": 43,
      "L": 44,
      "M": 45,
      "N": 46,
      "O": 47,
      "P": 48,
      "Q": 49,
      "R": 50,
      "S": 51,
      "T": 52,
      "U": 53,
      "V": 54,
      "W": 55,
      "X": 56,
      "Y": 57,
      "Z": 58,
      "[": 59,
      "\\": 60,
      "]": 61,
      "^": 62,
      "_": 63,
      "`": 64,
      "a": 65,
      "b": 66,
      "c": 67,
      "d": 68,
      "e": 69,
      "f": 70,
      "g": 71,
      "h": 72,
      "i": 73,
      "j": 74,
      "k": 75,
      "l": 76,
      "m": 77,
      "n": 78,
      "o": 79,
      "p": 80,
      "q": 81,
      "r": 82,
      "s": 83,
      "t": 84,
      "u": 85,
      "v": 86,
      "w": 87,
      "x": 88,
      "y": 89,
      "z": 90,
      "{": 91,
      "|": 92,
      "}": 93,
      "~": 94,
      "¡": 95,
      "¢": 96,
      "£": 97,
      "¤": 98,
      "¥": 99,
      "¦": 100,
      "§": 101,
      "¨": 102,
      "©": 103,
      "ª": 104,
      "«": 105,
      "¬": 106,
      "®": 107,
      "¯": 108,
      "°": 109,
      "±": 110,
      "²": 111,
      "³": 112,
      "´": 113,
      "µ": 114,
      "¶": 115,
      "·": 116,
      "¸": 117,
      "¹": 118,
      "º": 119,
      "»": 120,
      "¼": 121,
      "½": 122,
      "¾": 123,
      "¿": 124,
      "Â": 125,
      "Ã": 126,
      "Ä": 127,
      "Å": 128,
      "Æ": 129,
      "Ç": 130,
      "È": 131,
      "É": 132,
      "Ê": 133,
      "Ë": 134,
      "Ì": 135,
      "Í": 136,
      "Î": 137,
      "Ï": 138,
      "Ð": 139,
      "Ñ": 140,
      "Ó": 141,
      "Ô": 142,
      "Õ": 143,
      "Ö": 144,
      "×": 145,
      "Ø": 146,
      "Ù": 147,
      "Ú": 148,
      "Û": 149,
      "Ü": 150,
      "à": 151,
      "á": 152,
      "â": 153,
      "ã": 154,
      "ä": 155,
      "å": 156,
      "æ": 157,
      "ç": 158,
      "è": 159,
      "é": 160,
      "ê": 161,
      "ë": 162,
      "ì": 163,
      "í": 164,
      "ï": 165,
      "ð": 166,
      "Ċ": 167,
      "Ġ": 168,
      "Ģ": 169,
      "ģ": 170,
      "Ĥ": 171,
      "ĥ": 172,
      "Ħ": 173,
      "ħ": 174,
      "Ĩ": 175,
      "ĩ": 176,
      "Ī": 177,
      "ī": 178,
      "Ĭ": 179,
      "ĭ": 180,
      "Į": 181,
      "į": 182,
      "İ": 183,
      "ı": 184,
      "Ĳ": 185,
      "ĳ": 186,
      "Ĵ": 187,
      "ĵ": 188,
      "Ķ": 189,
      "ķ": 190,
      "ĸ": 191,
      "Ĺ": 192,
      "ĺ": 193,
      "Ļ": 194,
      "ļ": 195,
      "Ľ": 196,
      "ľ": 197,
      "Ŀ": 198,
      "ŀ": 199,
      "Ł": 200,
      "ł": 201,
      "Ń": 202,
      "TT": 203,
      "AA": 204,
      "TG": 205,
      "AG": 206,
      "CC": 207,
      "TC": 208,
      "AC": 209,
      "eĠ": 210,
      "GG": 211,
      "ATT": 212,
      "sĠ": 213,
      "AT": 214,
      "th": 215,
      "dĠ": 216,
      "ATG": 217,
      "nĠ": 218,
      "GC": 219,
      "er": 220,
      "TAA": 221,
      "tĠ": 222,
      "TCC": 223,
      "ACC": 224,
      "theĠ": 225,
      "in": 226,
      "AAAA": 227,
      "AGG": 228,
      "an": 229,
      ",Ġ": 230,
      "AGC": 231,
      "TTC": 232,
      "ATC": 233,
      "yĠ": 234,
      "edĠ": 235,
      "AAG": 236,
      "TTTT": 237,
      "or": 238,
      "TGC": 239,
      "TGG": 240,
      ".Ġ": 241,
      "ar": 242,
      "AAC": 243,
      "al": 244,
      "TTG": 245,
      "oĠ": 246,
      "TAG": 247,
      "re": 248,
      "fĠ": 249,
      "ti": 250,
      "TAC": 251,
      "en": 252,
      "on": 253,
      "erĠ": 254,
      "andĠ": 255,
      "gĠ": 256,
      "aĠ": 257,
      "ofĠ": 258,
      "onĠ": 259,
      "CCC": 260,
      "TATT": 261,
      "ingĠ": 262,
      "inĠ": 263,
      "ou": 264,
      "TGGG": 265,
      "toĠ": 266,
      "asĠ": 267,
      "st": 268,
      "AGAA": 269,
      "TAT": 270,
      "at": 271,
      "esĠ": 272,
      "ic": 273,
      "ro": 274,
      "AGGG": 275,
      "TTTC": 276,
      "AGGC": 277,
      "AGCC": 278,
      "mĠ": 279,
      "TGTG": 280,
      "el": 281,
      "ATAA": 282,
      "ATTC": 283,
      "=Ġ": 284,
      "il": 285,
      "TTGG": 286,
      "ACAC": 287,
      "Ġ,Ġ": 288,
      "AAGG": 289,
      "ac": 290,
      "TCTC": 291,
      "TCCC": 292,
      "it": 293,
      "isĠ": 294,
      "heĠ": 295,
      "TATG": 296,
      "TTTG": 297,
      "atĠ": 298,
      "anĠ": 299,
      "alĠ": 300,
      "is": 301,
      "TTCC": 302,
      "\"Ġ": 303,
      "AGAG": 304,
      "hĠ": 305,
      "for": 306,
      "thĠ": 307,
      "@Ġ": 308,
      "as": 309,
      "ur": 310,
      "ec": 311,
      "ATGG": 312,
      "AAAC": 313,
      "es": 314,
      "AGTG": 315,
      "om": 316,
      "wasĠ": 317,
      "ACCC": 318,
      "AGAC": 319,
      "TGCC": 320,
      "am": 321,
      "ol": 322,
      "ATTG": 323,
      "ATCC": 324,
      "enĠ": 325,
      "ir": 326,
      "ATGC": 327,
      "ATAC": 328,
      "TCAC": 329,
      "TCTG": 330,
      "tionĠ": 331,
      "TTAA": 332,
      "lyĠ": 333,
      "ri": 334,
      "ow": 335,
      "si": 336,
      "-@Ġ": 337,
      "@-@Ġ": 338,
      "TGAA": 339,
      "TGGC": 340,
      "=Ġ=Ġ": 341,
      "TheĠ": 342,
      "wh": 343,
      "ofĠtheĠ": 344,
      "TTGC": 345,
      "TAAG": 346,
      "TATC": 347,
      "TAAC": 348,
      "ad": 349,
      "wi": 350,
      "em": 351,
      "lĠ": 352,
      "ch": 353,
      "AAAG": 354,
      "kĠ": 355,
      "GGG": 356,
      "'sĠ": 357,
      "un": 358,
      "pl": 359,
      "AAGC": 360,
      "TTAC": 361,
      "ĠĊ": 362,
      "GGC": 363,
      ".ĠĊ": 364,
      "us": 365,
      "ATAT": 366,
      "TAGC": 367,
      "thatĠ": 368,
      "forĠ": 369,
      "di": 370,
      "ag": 371,
      "TACC": 372,
      "AACC": 373,
      "ev": 374,
      "ha": 375,
      "entĠ": 376,
      "byĠ": 377,
      "veĠ": 378,
      "ig": 379,
      "withĠ": 380,
      "AATG": 381,
      "TAGG": 382,
      "et": 383,
      "ATATT": 384,
      "GCC": 385,
      "con": 386,
      "sĠ,Ġ": 387,
      "AGTC": 388,
      "TTTTC": 389,
      "os": 390,
      "(Ġ": 391,
      "ent": 392,
      "le": 393,
      "eĠ,Ġ": 394,
      "ra": 395,
      "TGAC": 396,
      "AAAAC": 397,
      "su": 398,
      "19": 399,
      "ereĠ": 400,
      ".ĠTheĠ": 401,
      "0Ġ": 402,
      "inĠtheĠ": 403,
      "li": 404,
      "AATC": 405,
      "TTTAA": 406,
      "op": 407,
      "AAAAG": 408,
      "ATAG": 409,
      "TGTC": 410,
      "pro": 411,
      "orĠ": 412,
      "hisĠ": 413,
      "leĠ": 414,
      "TTATT": 415,
      "ov": 416,
      "be": 417,
      "oun": 418,
      "TTTTG": 419,
      "ear": 420,
      "TGAG": 421,
      "ab": 422,
      "ersĠ": 423,
      "com": 424,
      "ceĠ": 425,
      "hi": 426,
      "bu": 427,
      "ex": 428,
      "ap": 429,
      "the": 430,
      "romĠ": 431,
      "TTTCC": 432,
      "tion": 433,
      "AAATT": 434,
      "ationĠ": 435,
      "ul": 436,
      ")Ġ": 437,
      "itĠ": 438,
      "fromĠ": 439,
      "ACAG": 440,
      "tedĠ": 441,
      "ep": 442,
      "AATT": 443,
      "AATAA": 444,
      "ayĠ": 445,
      "TCAG": 446,
      "AGGCC": 447,
      "oc": 448,
      "20": 449,
      "AAATG": 450,
      "terĠ": 451,
      "cl": 452,
      "ACTC": 453,
      "TGGGC": 454,
      "id": 455,
      "ACG": 456,
      "ew": 457,
      "ATTTC": 458,
      "sp": 459,
      "ACTG": 460,
      "TTAG": 461,
      "uc": 462,
      "wereĠ": 463,
      "TGGCC": 464,
      "toĠtheĠ": 465,
      "im": 466,
      ".ĠI": 467,
      "ATATG": 468,
      "stĠ": 469,
      "therĠ": 470,
      "pĠ": 471,
      "ACAA": 472,
      "our": 473,
      "tr": 474,
      "tic": 475,
      "qu": 476,
      "oo": 477,
      "tsĠ": 478,
      "ter": 479,
      "se": 480,
      "ATCTC": 481,
      "per": 482,
      "ea": 483,
      "TATTC": 484,
      "ff": 485,
      ".ĠA": 486,
      "TGTAA": 487,
      "atedĠ": 488,
      "ay": 489,
      "ateĠ": 490,
      "pre": 491,
      "ATTCC": 492,
      "ing": 493,
      "sh": 494,
      "ityĠ": 495,
      "ain": 496,
      "no": 497,
      "TTCCC": 498,
      "AAAT": 499,
      "icĠ": 500,
      "ATGCC": 501,
      "arĠ": 502,
      "TTTGC": 503,
      "hadĠ": 504,
      "ichĠ": 505,
      "Ġ=Ġ=Ġ": 506,
      "TTTAG": 507,
      "rec": 508,
      "igh": 509,
      "edĠtheĠ": 510,
      "ldĠ": 511,
      "AAAAAAAA": 512,
      "âĢ": 513,
      "ingĠtheĠ": 514,
      "um": 515,
      ",ĠandĠ": 516,
      "dsĠ": 517,
      "iv": 518,
      "oug": 519,
      "edĠtoĠ": 520,
      "irĠ": 521,
      "TGGGG": 522,
      "TTCTC": 523,
      "1Ġ": 524,
      "TCCCC": 525,
      "whichĠ": 526,
      "chĠ": 527,
      "TAAAA": 528,
      "ameĠ": 529,
      "ACCCC": 530,
      "AGAAG": 531,
      "ACCTC": 532,
      "St": 533,
      "eĠofĠ": 534,
      "ak": 535,
      "TTTTTTTT": 536,
      "AGGGC": 537,
      "berĠ": 538,
      "estĠ": 539,
      "str": 540,
      "par": 541,
      "5Ġ": 542,
      "ACTT": 543,
      "2Ġ": 544,
      "beĠ": 545,
      "ACATT": 546,
      "AGATG": 547,
      "ud": 548,
      "GGCC": 549,
      "allyĠ": 550,
      "edĠbyĠ": 551,
      "GTG": 552,
      "outĠ": 553,
      "areĠ": 554,
      "od": 555,
      "ed": 556,
      "all": 557,
      ".ĠH": 558,
      "AAGCC": 559,
      "allĠ": 560,
      "ATAAAA": 561,
      "AGGAG": 562,
      "soĠ": 563,
      "fir": 564,
      "ATTAC": 565,
      "ation": 566,
      "TTTAC": 567,
      "av": 568,
      "ATGGC": 569,
      "TCAA": 570,
      ".ĠT": 571,
      "ATTGC": 572,
      "TTTGG": 573,
      "iesĠ": 574,
      "ACTGC": 575,
      "oneĠ": 576,
      "etĠ": 577,
      "est": 578,
      "tim": 579,
      "TATTG": 580,
      "aryĠ": 581,
      "ongĠ": 582,
      "AAGGC": 583,
      "onĠtheĠ": 584,
      "itsĠ": 585,
      "3Ġ": 586,
      "man": 587,
      "AGAAC": 588,
      "AAATC": 589,
      "TTGCC": 590,
      "TTGGC": 591,
      "por": 592,
      "wor": 593,
      "TGGAG": 594,
      "Ch": 595,
      "po": 596,
      "GGGC": 597,
      "ewĠ": 598,
      "butĠ": 599,
      "ATATC": 600,
      "tur": 601,
      "bl": 602,
      "4Ġ": 603,
      "ACTCC": 604,
      "ATAAC": 605,
      "att": 606,
      "ATCCC": 607,
      "AATTC": 608,
      "AGGGG": 609,
      "AAAGC": 610,
      "AGAGC": 611,
      "TCG": 612,
      "ouldĠ": 613,
      "ATTTT": 614,
      "ser": 615,
      "TGAGG": 616,
      "notĠ": 617,
      "AAAGG": 618,
      "owĠ": 619,
      "ATGGG": 620,
      "elĠ": 621,
      "200": 622,
      "herĠ": 623,
      "sĠandĠ": 624,
      "TTGGG": 625,
      "AGAAAA": 626,
      "fterĠ": 627,
      "TCTCC": 628,
      "ATAAG": 629,
      "ran": 630,
      "ATTTG": 631,
      "6Ġ": 632,
      "tw": 633,
      "og": 634,
      "derĠ": 635,
      "ot": 636,
      "ACCAC": 637,
      "TATCC": 638,
      "ownĠ": 639,
      "ardĠ": 640,
      "sc": 641,
      "geĠ": 642,
      "ATCAC": 643,
      "TCTTC": 644,
      "we": 645,
      "firstĠ": 646,
      "AGAGG": 647,
      ";Ġ": 648,
      ".ĠInĠ": 649,
      "TTTATT": 650,
      "de": 651,
      "theirĠ": 652,
      "8Ġ": 653,
      "ĵĠ": 654,
      "TGTAG": 655,
      "âĢĵĠ": 656,
      "ineĠ": 657,
      "iĠ": 658,
      "AGTAA": 659,
      ",ĠtheĠ": 660,
      "dingĠ": 661,
      "7Ġ": 662,
      "edĠinĠ": 663,
      "ATAGC": 664,
      "AGCCC": 665,
      "forĠtheĠ": 666,
      "alsoĠ": 667,
      "cont": 668,
      "oughĠ": 669,
      "TGTGG": 670,
      "AGATT": 671,
      "astĠ": 672,
      "ostĠ": 673,
      "TGTGC": 674,
      "GGGG": 675,
      "AGTT": 676,
      "sĠofĠ": 677,
      "TATGC": 678,
      "vi": 679,
      "TGAAG": 680,
      "ĠTheĠ": 681,
      "oundĠ": 682,
      "oll": 683,
      "TGCCC": 684,
      "TGTT": 685,
      "mentĠ": 686,
      "AGACC": 687,
      "oreĠ": 688,
      "TCTT": 689,
      "AAGGG": 690,
      "TCATT": 691,
      "AGTTC": 692,
      "TCTGC": 693,
      "00Ġ": 694,
      "idĠ": 695,
      "ut": 696,
      "otherĠ": 697,
      "sid": 698,
      "AAACC": 699,
      "ainĠ": 700,
      "haveĠ": 701,
      "andĠtheĠ": 702,
      "ACATG": 703,
      "fi": 704,
      "ill": 705,
      "fl": 706,
      "ionĠ": 707,
      "ACAGC": 708,
      "ACTTC": 709,
      "AATAG": 710,
      "aw": 711,
      ".@Ġ": 712,
      "@.@Ġ": 713,
      "AATAC": 714,
      "TGATG": 715,
      "twoĠ": 716,
      "erĠ,Ġ": 717,
      "dis": 718,
      "eĠtheĠ": 719,
      "esĠ,Ġ": 720,
      "shi": 721,
      "AATGG": 722,
      "gr": 723,
      "bo": 724,
      "AATGC": 725,
      "bec": 726,
      "whoĠ": 727,
      "ackĠ": 728,
      "TGATT": 729,
      "TCAGG": 730,
      "ver": 731,
      "duc": 732,
      "TCAGC": 733,
      "stor": 734,
      "TGTTC": 735,
      ":Ġ": 736,
      "TGAGC": 737,
      "TCTTG": 738,
      "ph": 739,
      "AGTGG": 740,
      "end": 741,
      "TTTTCC": 742,
      "beenĠ": 743,
      "hasĠ": 744,
      "TATGG": 745,
      "iaĠ": 746,
      ".ĠS": 747,
      "ru": 748,
      "=Ġ=ĠĊ": 749,
      "=ĠĊ": 750,
      "TTAAAA": 751,
      "ATACC": 752,
      "over": 753,
      "sec": 754,
      "eyĠ": 755,
      "201": 756,
      "TCCCAGC": 757,
      "AGATC": 758,
      "elyĠ": 759,
      "des": 760,
      "ageĠ": 761,
      "AACCC": 762,
      "9Ġ": 763,
      ",@Ġ": 764,
      "@,@Ġ": 765,
      "au": 766,
      "tiveĠ": 767,
      "ob": 768,
      "thisĠ": 769,
      "TACCC": 770,
      "year": 771,
      "tingĠ": 772,
      "form": 773,
      "TGAAC": 774,
      "AATCC": 775,
      "clud": 776,
      "TGTTG": 777,
      "omeĠ": 778,
      "ass": 779,
      "ell": 780,
      "IĠ": 781,
      "TTAAC": 782,
      "atĠtheĠ": 783,
      ".Ġ\"Ġ": 784,
      "TTAAG": 785,
      "TAGCC": 786,
      "comm": 787,
      "ATAGG": 788,
      "enceĠ": 789,
      "pr": 790,
      "emberĠ": 791,
      "TTATG": 792,
      "18": 793,
      "AGTGC": 794,
      "mil": 795,
      "AATTG": 796,
      "TTTAT": 797,
      "cre": 798,
      "and": 799,
      "ack": 800,
      "TCTAA": 801,
      "antĠ": 802,
      "fin": 803,
      "TGTCC": 804,
      "ourĠ": 805,
      "theyĠ": 806,
      "TAGGC": 807,
      "AĊ": 808,
      "'Ġ": 809,
      "Ġ,ĠandĠ": 810,
      "ousĠ": 811,
      "ightĠ": 812,
      "withĠtheĠ": 813,
      "TCATC": 814,
      "min": 815,
      "Un": 816,
      "Mar": 817,
      "sionĠ": 818,
      "AAGAC": 819,
      "fromĠtheĠ": 820,
      "ueĠ": 821,
      "ish": 822,
      "aterĠ": 823,
      "usĠ": 824,
      "AGAAGC": 825,
      "TTATC": 826,
      "TCTTTT": 827,
      "AGTGGC": 828,
      "AATTTT": 829,
      "includ": 830,
      "afterĠ": 831,
      "TCACC": 832,
      "ATTTTC": 833,
      "landĠ": 834,
      "In": 835,
      "icalĠ": 836,
      "adĠ": 837,
      ".ĠHeĠ": 838,
      "fe": 839,
      "CCCC": 840,
      "TCAAG": 841,
      "AGTAG": 842,
      "wouldĠ": 843,
      "rit": 844,
      "res": 845,
      "AAATAA": 846,
      "pe": 847,
      "ableĠ": 848,
      "yĠ,Ġ": 849,
      "sonĠ": 850,
      "asĠaĠ": 851,
      "ATTGG": 852,
      "TCATG": 853,
      "ilĠ": 854,
      "seĠ": 855,
      "ialĠ": 856,
      "ACTAC": 857,
      "TCAGCC": 858,
      "me": 859,
      "AGTTG": 860,
      "TGAGGC": 861,
      "ATTTAA": 862,
      "overĠ": 863,
      "ast": 864,
      "ACTAA": 865,
      "ĠA": 866,
      "ellĠ": 867,
      "edĠaĠ": 868,
      "reeĠ": 869,
      "entsĠ": 870,
      "ianĠ": 871,
      "eg": 872,
      "AGTCC": 873,
      "play": 874,
      "Ġ=Ġ=Ġ=Ġ": 875,
      "pres": 876,
      "ftĠ": 877,
      "eralĠ": 878,
      "ren": 879,
      ".ĠTh": 880,
      "ACATC": 881,
      "essĠ": 882,
      "fil": 883,
      "TCAAC": 884,
      "TGACC": 885,
      "TCTGG": 886,
      "ATATAA": 887,
      "cri": 888,
      "ACAAC": 889,
      "Ġ@-@Ġ": 890,
      "Ġ,ĠtheĠ": 891,
      "manĠ": 892,
      "TGAAAA": 893,
      "TTAGC": 894,
      "ACAGG": 895,
      "inter": 896,
      "TGTTTT": 897,
      "rem": 898,
      "ACACC": 899,
      "char": 900,
      "iz": 901,
      "gu": 902,
      "ernĠ": 903,
      "adeĠ": 904,
      "enc": 905,
      "pos": 906,
      "AAAGAA": 907,
      "pu": 908,
      "TTGGCC": 909,
      "AATAT": 910,
      "mer": 911,
      "off": 912,
      "TGATC": 913,
      "=Ġ=Ġ=ĠĊ": 914,
      "moreĠ": 915,
      "tyĠ": 916,
      "iceĠ": 917,
      "TAAGG": 918,
      "TGTAC": 919,
      ".ĠB": 920,
      "anc": 921,
      "ess": 922,
      ".ĠO": 923,
      "TAAGC": 924,
      "spec": 925,
      "upĠ": 926,
      "ACTTG": 927,
      "ACAAG": 928,
      "aceĠ": 929,
      "AATATT": 930,
      "atesĠ": 931,
      "thatĠtheĠ": 932,
      "eseĠ": 933,
      "ann": 934,
      "AAACAC": 935,
      "bet": 936,
      "TAGGG": 937,
      "ACAAAA": 938,
      "onsĠ": 939,
      "anceĠ": 940,
      "ticĠ": 941,
      "ustĠ": 942,
      "keĠ": 943,
      "TTTGTG": 944,
      "htĠ": 945,
      "ATTTTG": 946,
      "aĠ,Ġ": 947,
      "xĠ": 948,
      "mar": 949,
      "mostĠ": 950,
      "TTACC": 951,
      "ondĠ": 952,
      "timeĠ": 953,
      "ileĠ": 954,
      "kn": 955,
      "der": 956,
      "dec": 957,
      "TAATTTT": 958,
      "serv": 959,
      "TTCG": 960,
      "car": 961,
      "Au": 962,
      "TGTATT": 963,
      "TTAGG": 964,
      "sheĠ": 965,
      "umĠ": 966,
      "TCTAC": 967,
      "whenĠ": 968,
      "dur": 969,
      ".ĠW": 970,
      "ong": 971,
      "TAACC": 972,
      "ach": 973,
      "itedĠ": 974,
      "himĠ": 975,
      ".ĠItĠ": 976,
      "int": 977,
      "iti": 978,
      "ksĠ": 979,
      "AGAAGG": 980,
      "iteĠ": 981,
      "onlyĠ": 982,
      "asĠtheĠ": 983,
      ")Ġ,Ġ": 984,
      "TĊ": 985,
      "ist": 986,
      "AGTAC": 987,
      "AGTTTT": 988,
      "ATTATT": 989,
      "vid": 990,
      "tĠofĠ": 991,
      "aus": 992,
      "sur": 993,
      "AGCG": 994,
      "inĠ19": 995,
      "ishĠ": 996,
      "lar": 997,
      "cent": 998,
      "ACTGG": 999,
      "reg": 1000,
      "thanĠ": 1001,
      "An": 1002,
      "TCTAG": 1003,
      "thr": 1004,
      "ACCATG": 1005,
      "oldĠ": 1006,
      "sa": 1007,
      "co": 1008,
      "ationsĠ": 1009,
      "TAATAA": 1010,
      "ĠI": 1011,
      "ATATTC": 1012,
      "weenĠ": 1013,
      "endĠ": 1014,
      "ACGG": 1015,
      "Ar": 1016,
      "tor": 1017,
      "teĠ": 1018,
      "ric": 1019,
      "GCCC": 1020,
      "mon": 1021,
      "asonĠ": 1022,
      "tra": 1023,
      "TCCTG": 1024,
      "sev": 1025,
      "row": 1026,
      "En": 1027,
      "cor": 1028,
      "Al": 1029,
      "AAAAGC": 1030,
      "sy": 1031,
      "TTCAC": 1032,
      "aboutĠ": 1033,
      "shipĠ": 1034,
      "leas": 1035,
      "Th": 1036,
      "AAAACC": 1037,
      "ansĠ": 1038,
      "wayĠ": 1039,
      "amp": 1040,
      "atur": 1041,
      "enti": 1042,
      "AAAAGG": 1043,
      "betweenĠ": 1044,
      "pan": 1045,
      "tonĠ": 1046,
      "istĠ": 1047,
      "tionsĠ": 1048,
      "TCAGAA": 1049,
      "oodĠ": 1050,
      "ACACACAC": 1051,
      "ookĠ": 1052,
      "up": 1053,
      "sel": 1054,
      "amĠ": 1055,
      "to": 1056,
      "ang": 1057,
      "pleĠ": 1058,
      "rel": 1059,
      "te": 1060,
      "AGAGAA": 1061,
      "releas": 1062,
      "air": 1063,
      "of": 1064,
      "num": 1065,
      "produc": 1066,
      "kingĠ": 1067,
      "TCACTGC": 1068,
      "achĠ": 1069,
      "illĠ": 1070,
      "AGGAGG": 1071,
      "threeĠ": 1072,
      "ollow": 1073,
      "AACG": 1074,
      "ATTTCC": 1075,
      "TGGGATTAC": 1076,
      ".ĠM": 1077,
      "evel": 1078,
      "ningĠ": 1079,
      "TGTCTC": 1080,
      "if": 1081,
      "bas": 1082,
      "tis": 1083,
      "inĠaĠ": 1084,
      "TTCCCC": 1085,
      "ACTAG": 1086,
      "intoĠ": 1087,
      "gen": 1088,
      "ationalĠ": 1089,
      "edĠonĠ": 1090,
      "meric": 1091,
      "TGTAT": 1092,
      "tiv": 1093,
      "\"Ġ,Ġ": 1094,
      "edĠ,Ġ": 1095,
      "toĠbeĠ": 1096,
      "ber": 1097,
      "newĠ": 1098,
      "otĠ": 1099,
      "alsĠ": 1100,
      ".ĠD": 1101,
      "nor": 1102,
      "rig": 1103,
      "resĠ": 1104,
      "TGTGTGTG": 1105,
      "sub": 1106,
      "AGGAAG": 1107,
      "TCTTTC": 1108,
      "TGCG": 1109,
      "writ": 1110,
      "AGGCTGG": 1111,
      "ACGC": 1112,
      "beg": 1113,
      "ail": 1114,
      "@,@Ġ0": 1115,
      "TCTGCC": 1116,
      "Americ": 1117,
      ".ĠF": 1118,
      "app": 1119,
      "gameĠ": 1120,
      "ind": 1121,
      "whereĠ": 1122,
      "ATCG": 1123,
      "akeĠ": 1124,
      "coun": 1125,
      "oseĠ": 1126,
      "ATTTTTT": 1127,
      "ĠInĠ": 1128,
      "AGCAG": 1129,
      "TCGC": 1130,
      "Com": 1131,
      "Jo": 1132,
      "recor": 1133,
      "sig": 1134,
      "eb": 1135,
      "AĠ": 1136,
      "ementĠ": 1137,
      "ingsĠ": 1138,
      "ard": 1139,
      "ATATAC": 1140,
      "ub": 1141,
      "AAAGTGC": 1142,
      "eldĠ": 1143,
      "atingĠ": 1144,
      "thoughĠ": 1145,
      "filmĠ": 1146,
      "tenĠ": 1147,
      "ryĠ": 1148,
      "fu": 1149,
      "laterĠ": 1150,
      "199": 1151,
      "seasonĠ": 1152,
      "Par": 1153,
      "ous": 1154,
      "oy": 1155,
      "esĠandĠ": 1156,
      "TCCTGCC": 1157,
      "loc": 1158,
      "mus": 1159,
      "TCCG": 1160,
      "ACTTTT": 1161,
      "opĠ": 1162,
      "AAATTC": 1163,
      "tĠ,Ġ": 1164,
      "tit": 1165,
      "riv": 1166,
      "buil": 1167,
      "inc": 1168,
      "TTCAAG": 1169,
      "AAAAATT": 1170,
      "SĠ": 1171,
      "reĠ": 1172,
      "AATTTC": 1173,
      "struc": 1174,
      "AGGTC": 1175,
      "eng": 1176,
      "AGCCCC": 1177,
      "befor": 1178,
      "sĠ,ĠandĠ": 1179,
      "vis": 1180,
      "pp": 1181,
      "ma": 1182,
      "TTGCCC": 1183,
      "ATAGAA": 1184,
      "suchĠ": 1185,
      "byĠtheĠ": 1186,
      "TTTGCC": 1187,
      "AAAATAA": 1188,
      "Nor": 1189,
      "nedĠ": 1190,
      "esĠofĠ": 1191,
      "cap": 1192,
      "AGTTTC": 1193,
      "@,@Ġ000Ġ": 1194,
      "TGGGGC": 1195,
      "AGCAGC": 1196,
      "pol": 1197,
      "ACCG": 1198,
      "TGAGAC": 1199,
      "Con": 1200,
      "TATATT": 1201,
      "AACAC": 1202,
      "albu": 1203,
      "withĠaĠ": 1204,
      "he": 1205,
      "mo": 1206,
      "kedĠ": 1207,
      "TTTCCC": 1208,
      "NewĠ": 1209,
      "AAATAC": 1210,
      "AGGAGAA": 1211,
      "TGTGGC": 1212,
      "eamĠ": 1213,
      "ATATTG": 1214,
      "isod": 1215,
      "ste": 1216,
      "ectedĠ": 1217,
      "themĠ": 1218,
      "sl": 1219,
      "TTTTGC": 1220,
      "publ": 1221,
      "owev": 1222,
      "eadĠ": 1223,
      "omĠ": 1224,
      "thenĠ": 1225,
      "madeĠ": 1226,
      "AGGGGC": 1227,
      "psĠ": 1228,
      "TGTAATCCCAGC": 1229,
      "TGGGCC": 1230,
      "outhĠ": 1231,
      "AAATGC": 1232,
      "ingĠaĠ": 1233,
      "episod": 1234,
      "TTCTCC": 1235,
      "follow": 1236,
      "mat": 1237,
      "AAATGG": 1238,
      "TAAAAC": 1239,
      "Bri": 1240,
      "/Ġ": 1241,
      "TTTATG": 1242,
      "TGGGGG": 1243,
      "TGAGAA": 1244,
      "olĠ": 1245,
      "with": 1246,
      "AAGAAG": 1247,
      "bleĠ": 1248,
      "earĠ": 1249,
      "whileĠ": 1250,
      "compl": 1251,
      "AGCAC": 1252,
      "ainstĠ": 1253,
      "ros": 1254,
      "ATACAC": 1255,
      "fac": 1256,
      "dayĠ": 1257,
      "AGGGCC": 1258,
      "cho": 1259,
      "eaĠ": 1260,
      "AAGTGG": 1261,
      "TGTTTC": 1262,
      "star": 1263,
      "ant": 1264,
      "TTTTGG": 1265,
      "throughĠ": 1266,
      "TAAATG": 1267,
      "secondĠ": 1268,
      "lesĠ": 1269,
      "ACTTTGGG": 1270,
      "mis": 1271,
      "againstĠ": 1272,
      "TGTGCC": 1273,
      "sup": 1274,
      "TTCTTC": 1275,
      "inv": 1276,
      "edĠthatĠ": 1277,
      "AAAGAC": 1278,
      "br": 1279,
      "AGTCTC": 1280,
      "manyĠ": 1281,
      "TCCTC": 1282,
      "wellĠ": 1283,
      "charac": 1284,
      "nam": 1285,
      "AGATGG": 1286,
      "AATGAA": 1287,
      "ACAGAA": 1288,
      "lin": 1289,
      "ATTTAC": 1290,
      "posi": 1291,
      "ATTTGC": 1292,
      "albumĠ": 1293,
      "TGGAGTGC": 1294,
      "eĠandĠ": 1295,
      "someĠ": 1296,
      "canĠ": 1297,
      "tri": 1298,
      "ari": 1299,
      "songĠ": 1300,
      "cur": 1301,
      "AGGCTGAGGC": 1302,
      "AACTC": 1303,
      "becameĠ": 1304,
      "mp": 1305,
      "TATTCC": 1306,
      "TTTGGC": 1307,
      "ilyĠ": 1308,
      "GTGG": 1309,
      "gl": 1310,
      "arm": 1311,
      "TGATCC": 1312,
      "call": 1313,
      "noĠ": 1314,
      "AGCTC": 1315,
      "TTTAAG": 1316,
      "fer": 1317,
      "AGGTGG": 1318,
      "âĢĶ": 1319,
      "ectĠ": 1320,
      "TATAC": 1321,
      "UnitedĠ": 1322,
      "AGGAC": 1323,
      "inceĠ": 1324,
      "TTTGGG": 1325,
      "cc": 1326,
      "earlyĠ": 1327,
      "ĠS": 1328,
      "sing": 1329,
      "numberĠ": 1330,
      "AGATAA": 1331,
      ".ĠThisĠ": 1332,
      "heĠwasĠ": 1333,
      "seriesĠ": 1334,
      "TAAAC": 1335,
      "mov": 1336,
      "itĠwasĠ": 1337,
      "iver": 1338,
      "bothĠ": 1339,
      "TATATG": 1340,
      "ne": 1341,
      "GAG": 1342,
      "TTATAA": 1343,
      "ATTCCC": 1344,
      "âĢĶĠ": 1345,
      "gre": 1346,
      "TCCTCC": 1347,
      "edĠbyĠtheĠ": 1348,
      "tionĠofĠ": 1349,
      "ATATGC": 1350,
      "beingĠ": 1351,
      "edĠinĠtheĠ": 1352,
      "deĠ": 1353,
      "dep": 1354,
      "workĠ": 1355,
      "TTCTGC": 1356,
      "poin": 1357,
      "sist": 1358,
      "AAAGAG": 1359,
      "knownĠ": 1360,
      "TTTATC": 1361,
      "devel": 1362,
      "Joh": 1363,
      "TAAAAG": 1364,
      "lan": 1365,
      "ardsĠ": 1366,
      "TCAAAA": 1367,
      "adi": 1368,
      "TGATTC": 1369,
      "ATATCC": 1370,
      "AAATTG": 1371,
      "TTGAAC": 1372,
      "TTATTC": 1373,
      "ris": 1374,
      "lionĠ": 1375,
      "isĠaĠ": 1376,
      "thereĠ": 1377,
      "AGTGCC": 1378,
      "TGCTGC": 1379,
      "lo": 1380,
      "ip": 1381,
      "sul": 1382,
      "AATTAA": 1383,
      "direc": 1384,
      "eĠ,ĠandĠ": 1385,
      "AACAAC": 1386,
      "contin": 1387,
      "AAGAAAA": 1388,
      "ATATATAT": 1389,
      "isionĠ": 1390,
      "peri": 1391,
      "olog": 1392,
      "ATCTTC": 1393,
      "TACTC": 1394,
      "bel": 1395,
      "succ": 1396,
      "fourĠ": 1397,
      "ATATGG": 1398,
      "plac": 1399,
      "teamĠ": 1400,
      "Le": 1401,
      "underĠ": 1402,
      "yĠofĠ": 1403,
      "aysĠ": 1404,
      "owerĠ": 1405,
      "ualĠ": 1406,
      "ACTCCAGCC": 1407,
      "AGTATT": 1408,
      "orig": 1409,
      "AGAGGC": 1410,
      "overn": 1411,
      "AAATCC": 1412,
      "AGACAC": 1413,
      "cer": 1414,
      "ATTTATT": 1415,
      "wĠ": 1416,
      "10Ġ": 1417,
      "amesĠ": 1418,
      "saidĠ": 1419,
      "til": 1420,
      "TCTGGC": 1421,
      "AAGTC": 1422,
      "ignĠ": 1423,
      "TGAAAC": 1424,
      "diff": 1425,
      "ATCACC": 1426,
      "ATCTCC": 1427,
      "ATGATG": 1428,
      "ion": 1429,
      "yp": 1430,
      "rece": 1431,
      "Wor": 1432,
      "sm": 1433,
      "AATATG": 1434,
      "Car": 1435,
      "AAAGCC": 1436,
      "severalĠ": 1437,
      "TTGTTG": 1438,
      "Ger": 1439,
      "AATATC": 1440,
      "AGAGGG": 1441,
      "rop": 1442,
      "bro": 1443,
      "col": 1444,
      "couldĠ": 1445,
      "AATCTC": 1446,
      "TGCAC": 1447,
      "beforeĠ": 1448,
      "ef": 1449,
      "ther": 1450,
      "AAGGCC": 1451,
      "TCTTCC": 1452,
      "ATGGCC": 1453,
      "develop": 1454,
      ".ĠAĠ": 1455,
      "GCG": 1456,
      "TACG": 1457,
      "yearsĠ": 1458,
      "az": 1459,
      "out": 1460,
      "AACTCC": 1461,
      "AGGAGC": 1462,
      "AAAGGG": 1463,
      "high": 1464,
      "uryĠ": 1465,
      "tran": 1466,
      "AGATTC": 1467,
      "appear": 1468,
      "ATGAC": 1469,
      "ACCTCC": 1470,
      "didĠ": 1471,
      "AAAGTG": 1472,
      "TTGCAGTG": 1473,
      "ATTGCC": 1474,
      "AAAGGC": 1475,
      "tishĠ": 1476,
      "AGTAT": 1477,
      "TCCCAAAGTGC": 1478,
      "AmericanĠ": 1479,
      "ound": 1480,
      "sk": 1481,
      "origin": 1482,
      "anyĠ": 1483,
      "oughtĠ": 1484,
      "TTTTTAA": 1485,
      "selfĠ": 1486,
      "ept": 1487,
      "Ġ)Ġ": 1488,
      "org": 1489,
      "ticalĠ": 1490,
      "beganĠ": 1491,
      "Sh": 1492,
      "uallyĠ": 1493,
      "TTTAAC": 1494,
      "ighĠ": 1495,
      "retur": 1496,
      "duringĠtheĠ": 1497,
      "AATTTG": 1498,
      "Ju": 1499,
      "TCTCCC": 1500,
      "tersĠ": 1501,
      "TTCTG": 1502,
      ".ĠR": 1503,
      "ationĠofĠ": 1504,
      "ĠB": 1505,
      "AAATATT": 1506,
      ".ĠP": 1507,
      "leg": 1508,
      "torĠ": 1509,
      "tureĠ": 1510,
      "AATTCC": 1511,
      "acc": 1512,
      "ATTTAG": 1513,
      "tilĠ": 1514,
      "17": 1515,
      "view": 1516,
      "aveĠ": 1517,
      "TCCAC": 1518,
      "ativeĠ": 1519,
      "wardĠ": 1520,
      "sol": 1521,
      "offic": 1522,
      "oweverĠ,Ġ": 1523,
      "eredĠ": 1524,
      "TGGAAG": 1525,
      "go": 1526,
      "TTAAAC": 1527,
      "ATAGAG": 1528,
      "ATGTAA": 1529,
      "ATGTC": 1530,
      "AGCTGC": 1531,
      "TTGGGG": 1532,
      "aleĠ": 1533,
      "lif": 1534,
      "oci": 1535,
      ",ĠbutĠ": 1536,
      ".ĠOnĠ": 1537,
      "TGGGATTACAGGC": 1538,
      "Ġ\"Ġ": 1539,
      "win": 1540,
      "tak": 1541,
      "neĠ": 1542,
      "bor": 1543,
      "TGAAGG": 1544,
      "descri": 1545,
      "Cl": 1546,
      "TTAGAA": 1547,
      "sĠtheĠ": 1548,
      "AAGAAC": 1549,
      "AAAAAC": 1550,
      "AATGGC": 1551,
      "untilĠ": 1552,
      "storyĠ": 1553,
      "wasĠtheĠ": 1554,
      "194": 1555,
      "AGCTCC": 1556,
      "dre": 1557,
      "Oc": 1558,
      "fam": 1559,
      "TTAGCC": 1560,
      "AGCAGG": 1561,
      "pop": 1562,
      "kĠ,Ġ": 1563,
      ".ĠL": 1564,
      "AATAAC": 1565,
      "receiv": 1566,
      "TGCCCC": 1567,
      "ATCCCC": 1568,
      "tĠtheĠ": 1569,
      "TTGGGC": 1570,
      "198": 1571,
      "ularĠ": 1572,
      "lineĠ": 1573,
      "TCACCC": 1574,
      "oper": 1575,
      "TTTAGTAG": 1576,
      "ond": 1577,
      "TCGG": 1578,
      "edĠforĠ": 1579,
      "tlyĠ": 1580,
      "TAAATT": 1581,
      "eryĠ": 1582,
      "Wh": 1583,
      "forc": 1584,
      "AGGCCC": 1585,
      "sign": 1586,
      "orsĠ": 1587,
      "AGGCTGGAGTGC": 1588,
      "yearĠ": 1589,
      "edĠandĠ": 1590,
      "1Ġ,Ġ": 1591,
      "AGGAAC": 1592,
      "ĠM": 1593,
      "Gre": 1594,
      "grou": 1595,
      "TAAAAATAC": 1596,
      "nerĠ": 1597,
      "backĠ": 1598,
      "offĠ": 1599,
      "ten": 1600,
      "ATGAAG": 1601,
      "emp": 1602,
      "TCATTC": 1603,
      "suppor": 1604,
      "ron": 1605,
      "ortĠ": 1606,
      "cas": 1607,
      "wasĠaĠ": 1608,
      "myĠ": 1609,
      "AGAGCC": 1610,
      "ACCACC": 1611,
      "TGGCCC": 1612,
      ".ĠWh": 1613,
      "TGAAGC": 1614,
      "ingĠtoĠ": 1615,
      "Col": 1616,
      "hadĠbeenĠ": 1617,
      "ATGTG": 1618,
      "TTCAAC": 1619,
      "AAACCC": 1620,
      "millionĠ": 1621,
      "everĠ": 1622,
      "ATGGGG": 1623,
      "$Ġ": 1624,
      "ĠandĠ": 1625,
      "mod": 1626,
      "Wil": 1627,
      "AGCAAG": 1628,
      "TTGAC": 1629,
      "TCTCG": 1630,
      "AGGTGC": 1631,
      "ATCTGC": 1632,
      "assĠ": 1633,
      "AAGGGG": 1634,
      "ATGTGC": 1635,
      "BritishĠ": 1636,
      "theseĠ": 1637,
      "foundĠ": 1638,
      "TCTGTG": 1639,
      "ATGTGG": 1640,
      "leyĠ": 1641,
      "TAGAC": 1642,
      "ATTTGG": 1643,
      "ich": 1644,
      "pri": 1645,
      "AGAACC": 1646,
      "Jun": 1647,
      "includingĠ": 1648,
      "mi": 1649,
      "remain": 1650,
      "peo": 1651,
      "uresĠ": 1652,
      "stri": 1653,
      "irdĠ": 1654,
      "ATAGTG": 1655,
      "AATGTG": 1656,
      "ATCATC": 1657,
      "tain": 1658,
      "AATTAC": 1659,
      "eptemberĠ": 1660,
      "TTATTG": 1661,
      "edĠwithĠ": 1662,
      "AGTTTG": 1663,
      "Ã©": 1664,
      "abl": 1665,
      "TGTTTG": 1666,
      "requ": 1667,
      "bre": 1668,
      "continu": 1669,
      "TTTTTTG": 1670,
      "emb": 1671,
      "tĠofĠtheĠ": 1672,
      "aĠf": 1673,
      "ey": 1674,
      "ingĠ,Ġ": 1675,
      "tookĠ": 1676,
      "AATAAG": 1677,
      "TATAAAA": 1678,
      "SeptemberĠ": 1679,
      "siveĠ": 1680,
      "20Ġ": 1681,
      "sameĠ": 1682,
      "0Ġ,Ġ": 1683,
      "ATAGAC": 1684,
      "oryĠ": 1685,
      "ATGTTC": 1686,
      "odĠ": 1687,
      "CCCAGC": 1688,
      "ieĠ": 1689,
      "sideĠ": 1690,
      "eĠ,ĠtheĠ": 1691,
      "mĠ)Ġ": 1692,
      "longĠ": 1693,
      ".ĠAfterĠ": 1694,
      "playĠ": 1695,
      "AAGGGC": 1696,
      "ATAGGC": 1697,
      "becaus": 1698,
      "fulĠ": 1699,
      "TGATAA": 1700,
      "episodeĠ": 1701,
      "Sc": 1702,
      "ATGTTG": 1703,
      "mayĠ": 1704,
      "TGGAC": 1705,
      "UnitedĠSt": 1706,
      "eachĠ": 1707,
      "edĠasĠ": 1708,
      "ick": 1709,
      "resul": 1710,
      "do": 1711,
      "tionalĠ": 1712,
      "ATACCC": 1713,
      "ekĠ": 1714,
      "TCTATT": 1715,
      "2Ġ,Ġ": 1716,
      "enn": 1717,
      "197": 1718,
      "TACAC": 1719,
      "WorldĠ": 1720,
      "TCTTTG": 1721,
      "govern": 1722,
      "ĠO": 1723,
      "formĠ": 1724,
      "aroundĠ": 1725,
      "ATCTTG": 1726,
      "batt": 1727,
      "ectionĠ": 1728,
      "TGTTCC": 1729,
      "TGAGCC": 1730,
      "likeĠ": 1731,
      "met": 1732,
      "Bl": 1733,
      "dr": 1734,
      "stral": 1735,
      "5Ġ,Ġ": 1736,
      "TGTATG": 1737,
      "196": 1738,
      "esĠtoĠ": 1739,
      "ACTCTG": 1740,
      "Nov": 1741,
      "TCTTGC": 1742,
      "TTCTTG": 1743,
      "TCCTGC": 1744,
      "gustĠ": 1745,
      "ofĠaĠ": 1746,
      "AGGGGG": 1747,
      "CĠ": 1748,
      "ign": 1749,
      "Jan": 1750,
      "TAGCTGGG": 1751,
      "ens": 1752,
      "TGGAGC": 1753,
      "TTCTAG": 1754,
      "ACAGAG": 1755,
      "repor": 1756,
      "stateĠ": 1757,
      "AGTTCC": 1758,
      ",ĠwhichĠ": 1759,
      "sĠinĠ": 1760,
      "TTCTAA": 1761,
      "pass": 1762,
      "downĠ": 1763,
      "bri": 1764,
      "TGTGGG": 1765,
      "AGATGC": 1766,
      "vingĠ": 1767,
      "TTCTTTT": 1768,
      "TTTACC": 1769,
      "TAAGCC": 1770,
      "50Ġ": 1771,
      "bur": 1772,
      "ouĠ": 1773,
      "stemĠ": 1774,
      "describ": 1775,
      "tainĠ": 1776,
      "ATCATG": 1777,
      "4Ġ,Ġ": 1778,
      "ACCGC": 1779,
      "tedĠtoĠ": 1780,
      "Fran": 1781,
      "AACATGG": 1782,
      "ash": 1783,
      "jo": 1784,
      "lead": 1785,
      "sĠtoĠ": 1786,
      "toberĠ": 1787,
      "musicĠ": 1788,
      "mak": 1789,
      "OctoberĠ": 1790,
      "hel": 1791,
      "compan": 1792,
      "intoĠtheĠ": 1793,
      "ATTTTTC": 1794,
      "AACCCC": 1795,
      "alongĠ": 1796,
      "nationalĠ": 1797,
      "AAGTAA": 1798,
      "ityĠofĠ": 1799,
      "AugustĠ": 1800,
      "eff": 1801,
      "ATTAAAA": 1802,
      "airĠ": 1803,
      "isĠtheĠ": 1804,
      "aĠandĠ": 1805,
      "JohnĠ": 1806,
      "Har": 1807,
      "3Ġ,Ġ": 1808,
      "suchĠasĠ": 1809,
      "Austral": 1810,
      "Dec": 1811,
      "actĠ": 1812,
      "perĠ": 1813,
      "ATAAGC": 1814,
      "Yor": 1815,
      "AAGCG": 1816,
      "ath": 1817,
      "tryĠ": 1818,
      "TATTTATT": 1819,
      "war": 1820,
      "ATGGGC": 1821,
      "uchĠ": 1822,
      "fiveĠ": 1823,
      "maj": 1824,
      ".ĠE": 1825,
      "TTCTGG": 1826,
      "sou": 1827,
      "alĠ,Ġ": 1828,
      "appro": 1829,
      "AAAAAAAAAAAAAAAA": 1830,
      "TCCTGCCTCAGCC": 1831,
      "ech": 1832,
      "ATGAAC": 1833,
      "GGGCC": 1834,
      "haveĠbeenĠ": 1835,
      "For": 1836,
      "meĠ": 1837,
      "ven": 1838,
      "ali": 1839,
      "entlyĠ": 1840,
      "AGCTAC": 1841,
      "ivers": 1842,
      "disc": 1843,
      "atelyĠ": 1844,
      "AGTTAA": 1845,
      "own": 1846,
      "oneĠofĠtheĠ": 1847,
      "TCCCCC": 1848,
      "MayĠ": 1849,
      "ĠD": 1850,
      "ly": 1851,
      "def": 1852,
      "thernĠ": 1853,
      "sion": 1854,
      "30Ġ": 1855,
      "TTTTTTTTTTTTTTTT": 1856,
      "AATCAC": 1857,
      "AGTGTG": 1858,
      "TTGAACC": 1859,
      "ACCTGC": 1860,
      "sĠ,ĠtheĠ": 1861,
      "ATTTAT": 1862,
      "sĠwereĠ": 1863,
      "AGTGGG": 1864,
      "ACCCCC": 1865,
      "TGAGAG": 1866,
      "ureĠ": 1867,
      "ATAAGG": 1868,
      "ough": 1869,
      "giv": 1870,
      "under": 1871,
      "Pro": 1872,
      "peopleĠ": 1873,
      "TGGAGG": 1874,
      "Can": 1875,
      "som": 1876,
      "Sp": 1877,
      "forĠaĠ": 1878,
      "eoĠ": 1879,
      "JulyĠ": 1880,
      "bandĠ": 1881,
      "af": 1882,
      "AACAAAA": 1883,
      "UnitedĠStatesĠ": 1884,
      "du": 1885,
      "dra": 1886,
      "ATCTAA": 1887,
      "contro": 1888,
      "ounc": 1889,
      "ledĠ": 1890,
      "duringĠ": 1891,
      "NovemberĠ": 1892,
      "TTGTAA": 1893,
      "6Ġ,Ġ": 1894,
      "partic": 1895,
      "ATGCCC": 1896,
      "TGATGG": 1897,
      "vari": 1898,
      "resp": 1899,
      "ACTTTC": 1900,
      "gra": 1901,
      "awĠ": 1902,
      "TTTAGC": 1903,
      "esĠinĠ": 1904,
      "complet": 1905,
      "det": 1906,
      "consid": 1907,
      "TAGAAG": 1908,
      "extĠ": 1909,
      "ah": 1910,
      "caus": 1911,
      "AGTATG": 1912,
      "menĠ": 1913,
      "AGCTGG": 1914,
      "TTCATT": 1915,
      "ismĠ": 1916,
      "TGTCTG": 1917,
      "hal": 1918,
      "highĠ": 1919,
      "AGATAC": 1920,
      "ATCATT": 1921,
      ".ĠC": 1922,
      "TGCTC": 1923,
      "bi": 1924,
      "ful": 1925,
      "TGAGGG": 1926,
      ".ĠAl": 1927,
      "AATGCC": 1928,
      "redĠ": 1929,
      "AGGAAAA": 1930,
      "osĠ": 1931,
      "setĠ": 1932,
      "sequ": 1933,
      "sinceĠ": 1934,
      "TACAAAA": 1935,
      "uaryĠ": 1936,
      "Li": 1937,
      "AGCTTC": 1938,
      "ishedĠ": 1939,
      "Ġ'sĠ": 1940,
      "ATGTCC": 1941,
      "run": 1942,
      "TACTAAAAATAC": 1943,
      "AGCCG": 1944,
      "AATTGC": 1945,
      "Gu": 1946,
      "\"ĠandĠ": 1947,
      "TGGTGG": 1948,
      ".ĠTheyĠ": 1949,
      "TTGAAG": 1950,
      "open": 1951,
      "arlyĠ": 1952,
      "12Ġ": 1953,
      "dam": 1954,
      "didĠnotĠ": 1955,
      ".ĠN": 1956,
      "etsĠ": 1957,
      "TAGAAC": 1958,
      "AATCTG": 1959,
      "ATAAAAC": 1960,
      "Apr": 1961,
      "son": 1962,
      "GTCTC": 1963,
      "TTAAGC": 1964,
      "AGGTTC": 1965,
      "cul": 1966,
      "provid": 1967,
      "aneĠ": 1968,
      "AGACCC": 1969,
      "incre": 1970,
      "aĠ'sĠ": 1971,
      "15Ġ": 1972,
      "AGGTAA": 1973,
      "AATCCC": 1974,
      "Eu": 1975,
      "coll": 1976,
      "Ph": 1977,
      "scho": 1978,
      ".ĠInĠtheĠ": 1979,
      ".Ġ\"ĠĊ": 1980,
      "ditionĠ": 1981,
      "evenĠ": 1982,
      "medi": 1983,
      "larg": 1984,
      "TTAACC": 1985,
      "tre": 1986,
      "TATATC": 1987,
      "ATAACC": 1988,
      "ireĠ": 1989,
      "oĠ,Ġ": 1990,
      "TCCTGACCTC": 1991,
      "Ge": 1992,
      "iseĠ": 1993,
      "toĠaĠ": 1994,
      "AGCAAC": 1995,
      "ATTAAC": 1996,
      "dem": 1997,
      "usedĠ": 1998,
      "ouseĠ": 1999,
      "areaĠ": 2000,
      "TGGAAC": 2001,
      "Pl": 2002,
      "AGGCGG": 2003,
      "Indi": 2004,
      "willĠ": 2005,
      "erĠandĠ": 2006,
      "whatĠ": 2007,
      "AAATATC": 2008,
      "differ": 2009,
      "ACTGTG": 2010,
      "TTCATC": 2011,
      "ickĠ": 2012,
      "ĠF": 2013,
      "DecemberĠ": 2014,
      "dueĠ": 2015,
      "TATTGC": 2016,
      "TGCAGC": 2017,
      "nowĠ": 2018,
      "ifĠ": 2019,
      "TCACTGCAACC": 2020,
      "AGGATG": 2021,
      "leftĠ": 2022,
      "udi": 2023,
      "AAAAAAG": 2024,
      "AAATAG": 2025,
      "TCTGGG": 2026,
      "esĠtheĠ": 2027,
      "Gr": 2028,
      "ug": 2029,
      "expl": 2030,
      "AGGCCG": 2031,
      "TTTAGG": 2032,
      "TGAACC": 2033,
      "chil": 2034,
      "hasĠbeenĠ": 2035,
      "AATAGC": 2036,
      "..": 2037,
      "anotherĠ": 2038,
      "fun": 2039,
      "ATAAATAA": 2040,
      "muchĠ": 2041,
      "TCCACC": 2042,
      "TTATAC": 2043,
      "increas": 2044,
      "ATAGCC": 2045,
      "AGTAAC": 2046,
      "ogra": 2047,
      "TGGTGC": 2048,
      "largeĠ": 2049,
      "inst": 2050,
      "Char": 2051,
      "GCCCC": 2052,
      "AAATAT": 2053,
      "JanuaryĠ": 2054,
      "AGTCTG": 2055,
      "lim": 2056,
      "eas": 2057,
      "ati": 2058,
      "vic": 2059,
      "positionĠ": 2060,
      "her": 2061,
      "TTCAGC": 2062,
      "TTTTTC": 2063,
      "omin": 2064,
      "sum": 2065,
      "cla": 2066,
      "aug": 2067,
      "dea": 2068,
      "JuneĠ": 2069,
      "TTGTC": 2070,
      "placeĠ": 2071,
      "Qu": 2072,
      "cour": 2073,
      "TTGTAG": 2074,
      "Ro": 2075,
      "wro": 2076,
      "itt": 2077,
      "TATAAC": 2078,
      "dedĠ": 2079,
      "ACTGCACTCCAGCC": 2080,
      "AGTCAC": 2081,
      "AATGGG": 2082,
      "characterĠ": 2083,
      "systemĠ": 2084,
      "singleĠ": 2085,
      "GTGC": 2086,
      "AAGATG": 2087,
      "showĠ": 2088,
      "thirdĠ": 2089,
      "WarĠ": 2090,
      "westĠ": 2091,
      "gener": 2092,
      "ilityĠ": 2093,
      "esĠ(Ġ": 2094,
      "ACTTCC": 2095,
      "AGCATC": 2096,
      "calledĠ": 2097,
      "TTCATG": 2098,
      "comp": 2099,
      "ock": 2100,
      "adv": 2101,
      "[Ġ": 2102,
      "governmentĠ": 2103,
      "critic": 2104,
      "ATAGGG": 2105,
      "AAGCCC": 2106,
      "MarchĠ": 2107,
      "AprilĠ": 2108,
      "afterĠtheĠ": 2109,
      "NorthĠ": 2110,
      "yĠandĠ": 2111,
      "ersĠ,Ġ": 2112,
      "insĠ": 2113,
      "cordingĠ": 2114,
      "cityĠ": 2115,
      "AGCATT": 2116,
      "%Ġ": 2117,
      "del": 2118,
      "exp": 2119,
      "Jap": 2120,
      "veryĠ": 2121,
      "previ": 2122,
      "cu": 2123,
      "TGGGCAAC": 2124,
      "equ": 2125,
      "rev": 2126,
      "ATCAAC": 2127,
      "TGAGTG": 2128,
      "TACTAA": 2129,
      "fieldĠ": 2130,
      "asĠwellĠ": 2131,
      "tiesĠ": 2132,
      "AGTAAG": 2133,
      ",ĠaĠ": 2134,
      "USĠ": 2135,
      "yingĠ": 2136,
      "TATGCC": 2137,
      "TAGGCC": 2138,
      "justĠ": 2139,
      "fa": 2140,
      "ific": 2141,
      "TCCAGC": 2142,
      "msĠ": 2143,
      "AGAAAAG": 2144,
      "TATCCC": 2145,
      "eerĠ": 2146,
      "esp": 2147,
      "finalĠ": 2148,
      "AATACC": 2149,
      "tal": 2150,
      "TTCTTTC": 2151,
      "fur": 2152,
      "atureĠ": 2153,
      "port": 2154,
      ".ĠSheĠ": 2155,
      "dgeĠ": 2156,
      "ATTATG": 2157,
      "TGTTGG": 2158,
      "forman": 2159,
      "flu": 2160,
      "speciesĠ": 2161,
      "ACATTC": 2162,
      "TTAAGG": 2163,
      "TCAGGG": 2164,
      "]Ġ": 2165,
      "9Ġ,Ġ": 2166,
      "hor": 2167,
      "AGTCCC": 2168,
      "AAAAAAC": 2169,
      "Fl": 2170,
      "pur": 2171,
      "ys": 2172,
      "ACCTTG": 2173,
      "DĠ": 2174,
      "resid": 2175,
      "TGCAAG": 2176,
      ",ĠandĠtheĠ": 2177,
      "centuryĠ": 2178,
      "erĠ'sĠ": 2179,
      "tillĠ": 2180,
      "Bar": 2181,
      "YorkĠ": 2182,
      "ATGAGCC": 2183,
      "issu": 2184,
      "TCCTTC": 2185,
      "ATAAAAG": 2186,
      "organ": 2187,
      "AGTTAC": 2188,
      "doĠ": 2189,
      "TCCCAAG": 2190,
      "TTATCC": 2191,
      "AGCTAA": 2192,
      "TCACAGAG": 2193,
      "IIĠ": 2194,
      "AGAAAAC": 2195,
      "beli": 2196,
      "prot": 2197,
      "AGGCTGAGGCAGGAGAA": 2198,
      "attemp": 2199,
      "TTGTTTT": 2200,
      "Gen": 2201,
      "TGACAC": 2202,
      "fic": 2203,
      "ATTAAG": 2204,
      "TTACAC": 2205,
      "ACCAAC": 2206,
      "groundĠ": 2207,
      "TCACAC": 2208,
      "rightĠ": 2209,
      "ectsĠ": 2210,
      "ACATGG": 2211,
      "AGACCAGCC": 2212,
      "agueĠ": 2213,
      "uĠ": 2214,
      "erg": 2215,
      "worldĠ": 2216,
      "16": 2217,
      "TGTTAA": 2218,
      "TGTCCC": 2219,
      "esĠwereĠ": 2220,
      "efĠ": 2221,
      "ballĠ": 2222,
      "Eng": 2223,
      "ACAGCC": 2224,
      "TCAGGC": 2225,
      "scor": 2226,
      ")ĠandĠ": 2227,
      "ACCTAA": 2228,
      "groupĠ": 2229,
      "7Ġ,Ġ": 2230,
      "TGATGC": 2231,
      "TGTATC": 2232,
      "193": 2233,
      "AGGTAG": 2234,
      "nameĠ": 2235,
      "TCCTGG": 2236,
      "zĠ": 2237,
      "195": 2238,
      "TATGGC": 2239,
      "followingĠ": 2240,
      "eav": 2241,
      "lessĠ": 2242,
      "TTCTAC": 2243,
      "oonĠ": 2244,
      "elev": 2245,
      "allow": 2246,
      "ATCAAG": 2247,
      "10": 2248,
      "indĠ": 2249,
      "eanĠ": 2250,
      "\"Ġ.ĠĊ": 2251,
      "11Ġ": 2252,
      "TTTCTTTC": 2253,
      "chang": 2254,
      "AATTATT": 2255,
      "TCATGCC": 2256,
      "edĠhisĠ": 2257,
      "ord": 2258,
      "pi": 2259,
      "recordĠ": 2260,
      "stud": 2261,
      "scen": 2262,
      "lastĠ": 2263,
      "toĠre": 2264,
      "ATTTTAA": 2265,
      "stit": 2266,
      "can": 2267,
      "TGTAATCCCAGCACTTTGGG": 2268,
      "overĠtheĠ": 2269,
      "TGTCAC": 2270,
      "ebru": 2271,
      "8Ġ,Ġ": 2272,
      "AATTTAA": 2273,
      "AGATTG": 2274,
      "oĠ@-@Ġ": 2275,
      "raftĠ": 2276,
      "show": 2277,
      "asĠ\"Ġ": 2278,
      "useĠ": 2279,
      "AGGTTG": 2280,
      "Bo": 2281,
      "antsĠ": 2282,
      "onĠaĠ": 2283,
      "ext": 2284,
      "ebruaryĠ": 2285,
      "nextĠ": 2286,
      "stillĠ": 2287,
      "etherĠ": 2288,
      "Cor": 2289,
      "Mc": 2290,
      "TGGCTCAC": 2291,
      "TTAGAG": 2292,
      "lifeĠ": 2293,
      "TCAGAG": 2294,
      "TGCTCC": 2295,
      "thĠ,Ġ": 2296,
      "la": 2297,
      "mainĠ": 2298,
      "ACAAAC": 2299,
      "Di": 2300,
      "AGCACC": 2301,
      "ATCGC": 2302,
      "thingĠ": 2303,
      "aff": 2304,
      "performan": 2305,
      "'tĠ": 2306,
      "TGTAAG": 2307,
      "dist": 2308,
      "heldĠ": 2309,
      "AGTAGC": 2310,
      "ATCTAC": 2311,
      "FebruaryĠ": 2312,
      "Ac": 2313,
      "bestĠ": 2314,
      "familyĠ": 2315,
      "AGTATC": 2316,
      "AGATCC": 2317,
      "ACCAGCC": 2318,
      "neyĠ": 2319,
      "fri": 2320,
      "TCTAT": 2321,
      "Ġ=Ġ": 2322,
      "builtĠ": 2323,
      "popul": 2324,
      "warĠ": 2325,
      "originalĠ": 2326,
      "TCAAGC": 2327,
      "ationĠ,Ġ": 2328,
      "imĠ": 2329,
      "some": 2330,
      "TCAAAC": 2331,
      "Mus": 2332,
      "bĠ": 2333,
      "ockĠ": 2334,
      "TTTCCCC": 2335,
      "TGCTTC": 2336,
      "TAATAC": 2337,
      "AAGAGC": 2338,
      ".ĠHoweverĠ,Ġ": 2339,
      "AGTTGG": 2340,
      "ĠH": 2341,
      "TACCCC": 2342,
      "nearĠ": 2343,
      "SouthĠ": 2344,
      "construc": 2345,
      "TCCTGAG": 2346,
      "ACAGTG": 2347,
      "iveĠ": 2348,
      "Mon": 2349,
      "Fren": 2350,
      "outeĠ": 2351,
      "rais": 2352,
      "main": 2353,
      ",Ġ\"Ġ": 2354,
      "becauseĠ": 2355,
      "ableĠtoĠ": 2356,
      "prov": 2357,
      "TCTCTCTC": 2358,
      "mor": 2359,
      "AGGTGTG": 2360,
      "majorĠ": 2361,
      "TGTTGC": 2362,
      "CCCG": 2363,
      "wom": 2364,
      "read": 2365,
      "ouslyĠ": 2366,
      "ĠT": 2367,
      "GermanĠ": 2368,
      "ATGTAC": 2369,
      "TCATTG": 2370,
      "itiesĠ": 2371,
      "establ": 2372,
      "lateĠ": 2373,
      "ATGAAAA": 2374,
      "althoughĠ": 2375,
      "easĠ": 2376,
      "GTGAGCC": 2377,
      "present": 2378,
      "ACAGGG": 2379,
      "inn": 2380,
      "onĠ,Ġ": 2381,
      "videoĠ": 2382,
      "cep": 2383,
      "TAGAAAA": 2384,
      "wouldĠbeĠ": 2385,
      "TCCTTG": 2386,
      "proc": 2387,
      "ATTATC": 2388,
      "endedĠ": 2389,
      "poli": 2390,
      "AAACGGG": 2391,
      "ACTTTG": 2392,
      "success": 2393,
      "ATAGTC": 2394,
      "initi": 2395,
      "25Ġ": 2396,
      "kill": 2397,
      "townĠ": 2398,
      "ingĠandĠ": 2399,
      "wat": 2400,
      "tro": 2401,
      "AGTTGC": 2402,
      "NationalĠ": 2403,
      "ACCTGG": 2404,
      "mag": 2405,
      "gg": 2406,
      "TTGAACCC": 2407,
      "ropicalĠ": 2408,
      "Re": 2409,
      "AATTGG": 2410,
      "TTATGC": 2411,
      "numberĠofĠ": 2412,
      "shipsĠ": 2413,
      "AAACG": 2414,
      "AATAGG": 2415,
      "TGTAAC": 2416,
      "clos": 2417,
      "homeĠ": 2418,
      "inaĠ": 2419,
      "Ma": 2420,
      "TCATCC": 2421,
      "sĠ.ĠĊ": 2422,
      "ATTTCTC": 2423,
      "them": 2424,
      "hum": 2425,
      "reach": 2426,
      "tivelyĠ": 2427,
      "TCCATG": 2428,
      "againĠ": 2429,
      "Ad": 2430,
      "ett": 2431,
      "AAATAAAA": 2432,
      "TTCAGG": 2433,
      "fordĠ": 2434,
      "olv": 2435,
      "simil": 2436,
      "TATTGG": 2437,
      "TCCGCC": 2438,
      "versionĠ": 2439,
      "auth": 2440,
      "ACAGGC": 2441,
      "thatĠheĠ": 2442,
      "Per": 2443,
      "ATAATAA": 2444,
      "ACCAGC": 2445,
      "NewĠYorkĠ": 2446,
      "TCTTGG": 2447,
      "lat": 2448,
      "18Ġ": 2449,
      "respon": 2450,
      "Man": 2451,
      "dg": 2452,
      "camp": 2453,
      "14Ġ": 2454,
      "ACCAAG": 2455,
      "rac": 2456,
      "itaryĠ": 2457,
      "perform": 2458,
      "TATAAG": 2459,
      "gam": 2460,
      "dro": 2461,
      "waterĠ": 2462,
      "AACATC": 2463,
      "TTGTATT": 2464,
      "smallĠ": 2465,
      "ithĠ": 2466,
      "ok": 2467,
      "13Ġ": 2468,
      ".ĠItĠwasĠ": 2469,
      "TGCTGG": 2470,
      "sen": 2471,
      "ACAGAC": 2472,
      "TTACCC": 2473,
      "wroteĠ": 2474,
      "yl": 2475,
      "embersĠ": 2476,
      "FrenchĠ": 2477,
      "ATTTTTG": 2478,
      "sixĠ": 2479,
      "16Ġ": 2480,
      "Willi": 2481,
      "oveĠ": 2482,
      "cameĠ": 2483,
      "ATTGGC": 2484,
      "pris": 2485,
      "stat": 2486,
      "utionĠ": 2487,
      "ofĠhisĠ": 2488,
      "eal": 2489,
      "TCAGTG": 2490,
      "AACTTC": 2491,
      "manag": 2492,
      "GGGGC": 2493,
      "TCAAGG": 2494,
      "halfĠ": 2495,
      "oftenĠ": 2496,
      "northĠ": 2497,
      "ATTTTCC": 2498,
      "100Ġ": 2499,
      "ACATGC": 2500,
      "TTTTTTTTTTTT": 2501,
      "TGGTAA": 2502,
      "thoseĠ": 2503,
      "AGGTAC": 2504,
      "AGGCTGC": 2505,
      ":Ġ\"Ġ": 2506,
      "ATGTAG": 2507,
      "elec": 2508,
      "AGAGAGAG": 2509,
      "sch": 2510,
      "TCCCG": 2511,
      "inĠ200": 2512,
      "AGGATGG": 2513,
      "TTATATT": 2514,
      "andsĠ": 2515,
      "denĠ": 2516,
      "design": 2517,
      "possi": 2518,
      "ATGATC": 2519,
      "roy": 2520,
      "roleĠ": 2521,
      "hy": 2522,
      "TCAGGAG": 2523,
      "histor": 2524,
      "eh": 2525,
      "AATTTTC": 2526,
      ".ĠAsĠ": 2527,
      "inĠhisĠ": 2528,
      "ACCATC": 2529,
      "esternĠ": 2530,
      "iousĠ": 2531,
      "typ": 2532,
      "AGGAGGC": 2533,
      "timesĠ": 2534,
      "TCCTGGG": 2535,
      "TTTCACCATG": 2536,
      "receivedĠ": 2537,
      "TCCAAG": 2538,
      "AAAAAAAAAAAA": 2539,
      "TTAGGG": 2540,
      "AGACG": 2541,
      "formerĠ": 2542,
      "AACTAA": 2543,
      "actionĠ": 2544,
      "Univers": 2545,
      "ACCTTC": 2546,
      "vo": 2547,
      "ACTAT": 2548,
      "tot": 2549,
      ".ĠDur": 2550,
      "EnglandĠ": 2551,
      "pit": 2552,
      "ACACG": 2553,
      "bar": 2554,
      "itĠisĠ": 2555,
      "AGACAGGG": 2556,
      "believ": 2557,
      "TGTTAC": 2558,
      "lik": 2559,
      "ACATAA": 2560,
      "ingtonĠ": 2561,
      "TAGTAA": 2562,
      "inĠ18": 2563,
      "AAAATAC": 2564,
      "Rob": 2565,
      "TGACCC": 2566,
      "TCCATC": 2567,
      "TGGCG": 2568,
      "makeĠ": 2569,
      "oot": 2570,
      "Engl": 2571,
      "ograph": 2572,
      "Co": 2573,
      "AGCCAAG": 2574,
      "40Ġ": 2575,
      "AGCATG": 2576,
      "ret": 2577,
      "ersĠandĠ": 2578,
      "rang": 2579,
      "stormĠ": 2580,
      "TCATAA": 2581,
      "El": 2582,
      "TGTTTTC": 2583,
      "anti": 2584,
      "claim": 2585,
      "AGTAGG": 2586,
      "tĠandĠ": 2587,
      "ke": 2588,
      "Coun": 2589,
      "ACTGGG": 2590,
      ";ĠtheĠ": 2591,
      "viewĠ": 2592,
      "AACTGC": 2593,
      "TGAAACCCC": 2594,
      "AGAAAGAA": 2595,
      "ik": 2596,
      "ACTATT": 2597,
      "TCCTAA": 2598,
      "soci": 2599,
      "ACTGCC": 2600,
      "TATGGG": 2601,
      "youĠ": 2602,
      "withoutĠ": 2603,
      "TTTATTC": 2604,
      "AAGTGC": 2605,
      "TTTGTGATG": 2606,
      ".S": 2607,
      "TTATGG": 2608,
      "periodĠ": 2609,
      "powerĠ": 2610,
      "sit": 2611,
      "publicĠ": 2612,
      "membersĠ": 2613,
      "tow": 2614,
      "differentĠ": 2615,
      "mĠ(Ġ": 2616,
      "ementsĠ": 2617,
      "Pr": 2618,
      "TTAGTG": 2619,
      "wentĠ": 2620,
      "angeĠ": 2621,
      "spir": 2622,
      "writtenĠ": 2623,
      "song": 2624,
      "localĠ": 2625,
      "AGGCG": 2626,
      "edĠonĠtheĠ": 2627,
      "anim": 2628,
      "AACATG": 2629,
      "erc": 2630,
      "arch": 2631,
      "oneĠofĠ": 2632,
      "inf": 2633,
      "ATTCTCAGAA": 2634,
      "TTGTTC": 2635,
      "gamesĠ": 2636,
      "aĠ\"Ġ": 2637,
      "TTTTAAAA": 2638,
      "roc": 2639,
      "orderĠ": 2640,
      "AAAGAAG": 2641,
      "divid": 2642,
      "alityĠ": 2643,
      "TCCCAGCTAC": 2644,
      "ofĠS": 2645,
      "club": 2646,
      "ACCTAC": 2647,
      "wee": 2648,
      "jectĠ": 2649,
      "TCATGG": 2650,
      "commun": 2651,
      "TTGTGC": 2652,
      "craftĠ": 2653,
      "roadĠ": 2654,
      "TCCAGG": 2655,
      "tĠtoĠ": 2656,
      "pat": 2657,
      "TGATTG": 2658,
      "ATCTGG": 2659,
      "uteĠ": 2660,
      ".ĠHisĠ": 2661,
      "TCGGCC": 2662,
      "studi": 2663,
      "hol": 2664,
      "ATĊ": 2665,
      "influ": 2666,
      "ATTTTAC": 2667,
      "ressĠ": 2668,
      "Inter": 2669,
      "AAGAGG": 2670,
      "sugg": 2671,
      "southĠ": 2672,
      "trackĠ": 2673,
      ".ĠWhenĠ": 2674,
      "cordingĠtoĠ": 2675,
      "AAATATG": 2676,
      "TGGGAGG": 2677,
      "attack": 2678,
      "back": 2679,
      "AAAGAAAA": 2680,
      "ACATCC": 2681,
      "Or": 2682,
      "him": 2683,
      "Cent": 2684,
      "TAATTTTTGTATT": 2685,
      "anĠ,Ġ": 2686,
      "weĠ": 2687,
      "epĠ": 2688,
      "TGAGTC": 2689,
      "ACTCTC": 2690,
      "esĠ.ĠĊ": 2691,
      "namedĠ": 2692,
      "odyĠ": 2693,
      "ATTCG": 2694,
      "ittleĠ": 2695,
      "new": 2696,
      "TGATAC": 2697,
      "ATTGGG": 2698,
      "head": 2699,
      "refer": 2700,
      "reetĠ": 2701,
      "rest": 2702,
      "TAAAAAA": 2703,
      "15": 2704,
      "ACATAC": 2705,
      "quar": 2706,
      "dest": 2707,
      "TTAGAC": 2708,
      "Rec": 2709,
      "tedĠbyĠ": 2710,
      "17Ġ": 2711,
      "entalĠ": 2712,
      "los": 2713,
      "amongĠ": 2714,
      "iumĠ": 2715,
      "Riv": 2716,
      "Su": 2717,
      "join": 2718,
      "andĠaĠ": 2719,
      "ATGAGC": 2720,
      "let": 2721,
      "givenĠ": 2722,
      "partĠofĠtheĠ": 2723,
      "U.S": 2724,
      "epar": 2725,
      "Ser": 2726,
      "tem": 2727,
      "edĠatĠ": 2728,
      "rownĠ": 2729,
      "headĠ": 2730,
      "ACTGAA": 2731,
      "ACCTGCC": 2732,
      "TGCAGG": 2733,
      "eastĠ": 2734,
      "ATTTTTAA": 2735,
      "TGGGTGAC": 2736,
      "whil": 2737,
      "ATGAGG": 2738,
      "featur": 2739,
      "fron": 2740,
      "thersĠ": 2741,
      "playerĠ": 2742,
      "topĠ": 2743,
      "AGTTTTC": 2744,
      "AACAAG": 2745,
      "liv": 2746,
      "elsĠ": 2747,
      "Batt": 2748,
      "announc": 2749,
      "thatĠ\"Ġ": 2750,
      "ĠOnĠ": 2751,
      "Lond": 2752,
      "person": 2753,
      "GCGG": 2754,
      "hamĠ": 2755,
      "cop": 2756,
      "AACAGC": 2757,
      "ACTCCC": 2758,
      "TCATGC": 2759,
      "defe": 2760,
      "AACTAC": 2761,
      "fiedĠ": 2762,
      "gaveĠ": 2763,
      "ATTTCG": 2764,
      "ingĠofĠ": 2765,
      "EnglishĠ": 2766,
      "list": 2767,
      "tedĠtheĠ": 2768,
      "val": 2769,
      "onĠ@-@Ġ": 2770,
      "TTGAGG": 2771,
      "contr": 2772,
      "ta": 2773,
      "productionĠ": 2774,
      "decid": 2775,
      "AGATGGGG": 2776,
      "furtherĠ": 2777,
      "TAATTC": 2778,
      "TCAAAG": 2779,
      "ATCAGC": 2780,
      "TCTATG": 2781,
      "Wal": 2782,
      "AACATT": 2783,
      "AGTACC": 2784,
      "TGTAGG": 2785,
      "Pol": 2786,
      "TCTTAA": 2787,
      "AGATATT": 2788,
      "ubl": 2789,
      "sedĠ": 2790,
      "amm": 2791,
      "betweenĠtheĠ": 2792,
      "TGGGCG": 2793,
      "ACATTG": 2794,
      "matchĠ": 2795,
      ".ĠG": 2796,
      "ATATATG": 2797,
      "1Ġ@.@Ġ": 2798,
      "ref": 2799,
      "AAGTTC": 2800,
      "exam": 2801,
      "akĠ": 2802,
      "War": 2803,
      "ationĠofĠtheĠ": 2804,
      "Tim": 2805,
      "TGCATG": 2806,
      "ACTATG": 2807,
      "TCTATC": 2808,
      "castĠ": 2809,
      "TTAAAAC": 2810,
      "statedĠ": 2811,
      "AATTTTG": 2812,
      "iallyĠ": 2813,
      "drenĠ": 2814,
      "event": 2815,
      "comb": 2816,
      "deathĠ": 2817,
      "ATATAAAA": 2818,
      "onom": 2819,
      "daysĠ": 2820,
      "ni": 2821,
      "AGGCCCC": 2822,
      "ACAATG": 2823,
      "leadĠ": 2824,
      "onyĠ": 2825,
      "CityĠ": 2826,
      "TGGTAG": 2827,
      "Ed": 2828,
      "hadĠaĠ": 2829,
      "Min": 2830,
      "AATCTGC": 2831,
      "review": 2832,
      "As": 2833,
      "TAGCTGGGACTAC": 2834,
      "atorĠ": 2835,
      "TTGTAC": 2836,
      "heav": 2837,
      "TATTTTC": 2838,
      "ampion": 2839,
      "schoolĠ": 2840,
      "bookĠ": 2841,
      "ACACCC": 2842,
      "takeĠ": 2843,
      "mul": 2844,
      "0sĠ": 2845,
      "elevisionĠ": 2846,
      "land": 2847,
      "TCTTAC": 2848,
      "TTTGTAA": 2849,
      "stric": 2850,
      "trans": 2851,
      "ageĠofĠ": 2852,
      "izedĠ": 2853,
      "ATAAATG": 2854,
      "sentĠ": 2855,
      "sionsĠ": 2856,
      "ATATATT": 2857,
      "urric": 2858,
      "AGCTGAG": 2859,
      "imp": 2860,
      "TCTGTCTC": 2861,
      "lostĠ": 2862,
      "nsĠ": 2863,
      "buildingĠ": 2864,
      "sal": 2865,
      "cros": 2866,
      "TTTTTTC": 2867,
      "TTGAAAA": 2868,
      "Af": 2869,
      "TGGATG": 2870,
      "Is": 2871,
      "cy": 2872,
      "ort": 2873,
      "ralĠ": 2874,
      "ili": 2875,
      "fatherĠ": 2876,
      "month": 2877,
      "Dav": 2878,
      "inĠwhichĠ": 2879,
      "ablyĠ": 2880,
      ")ĠĊ": 2881,
      "AGCGC": 2882,
      "TACATG": 2883,
      "TTAGGC": 2884,
      "TGTAGC": 2885,
      "xim": 2886,
      "youn": 2887,
      "kerĠ": 2888,
      "ACCACG": 2889,
      "ATCTAG": 2890,
      "Canad": 2891,
      ".ĠK": 2892,
      "ACAAGG": 2893,
      "agre": 2894,
      "24Ġ": 2895,
      "getĠ": 2896,
      "AAGTAG": 2897,
      "esĠofĠtheĠ": 2898,
      "edĠfromĠ": 2899,
      "TCAGTC": 2900,
      "TCAACC": 2901,
      ".ĠByĠ": 2902,
      "TTGTGG": 2903,
      "TAATGC": 2904,
      "TCACG": 2905,
      "cr": 2906,
      "tionĠofĠtheĠ": 2907,
      "icallyĠ": 2908,
      "Ex": 2909,
      "careerĠ": 2910,
      "AAACTCC": 2911,
      "WestĠ": 2912,
      "oughoutĠ": 2913,
      "ATGGTGGC": 2914,
      "replac": 2915,
      "AGGTCAGGAG": 2916,
      "edĠtoĠtheĠ": 2917,
      "similarĠ": 2918,
      "becom": 2919,
      "TAAGGC": 2920,
      "ACTTGG": 2921,
      "AGGAAGG": 2922,
      "awayĠ": 2923,
      "TTTTTCC": 2924,
      "TTGTCC": 2925,
      "boardĠ": 2926,
      "arti": 2927,
      "sw": 2928,
      "entialĠ": 2929,
      "TGTACC": 2930,
      "AAAAATG": 2931,
      "AGGAAAC": 2932,
      "Be": 2933,
      "throughĠtheĠ": 2934,
      "TTGGAAACGGG": 2935,
      "ofĠM": 2936,
      "howĠ": 2937,
      "TTTTTTTC": 2938,
      "TCAGAC": 2939,
      "Rom": 2940,
      "TCTTTTC": 2941,
      "suff": 2942,
      "hear": 2943,
      "TAAATC": 2944,
      "grad": 2945,
      "himselfĠ": 2946,
      "RĠ": 2947,
      "TATTTTG": 2948,
      "ACTGGC": 2949,
      "TAATAG": 2950,
      "yleĠ": 2951,
      "neverĠ": 2952,
      "ship": 2953,
      "amsĠ": 2954,
      "TGGTTC": 2955,
      "ionsĠ": 2956,
      "aver": 2957,
      "AAACAAAC": 2958,
      "ATTCAAC": 2959,
      "ATTTTATT": 2960,
      "AGAAATG": 2961,
      "TTTATTG": 2962,
      "ATTAGG": 2963,
      "VĠ": 2964,
      "ACAAAG": 2965,
      "edĠthatĠtheĠ": 2966,
      "arriv": 2967,
      "AGCTGGG": 2968,
      "ideĠ": 2969,
      "TTTCG": 2970,
      "thĠcenturyĠ": 2971,
      "runĠ": 2972,
      "developmentĠ": 2973,
      "Rus": 2974,
      "merĠ": 2975,
      "urchĠ": 2976,
      "har": 2977,
      "Div": 2978,
      "lingĠ": 2979,
      "TCTACC": 2980,
      "militaryĠ": 2981,
      "AGATAG": 2982,
      "ensĠ": 2983,
      "ACTCAC": 2984,
      "TTATAG": 2985,
      "aircraftĠ": 2986,
      "curren": 2987,
      "havingĠ": 2988,
      "gun": 2989,
      "TTTTGCC": 2990,
      "intro": 2991,
      "nec": 2992,
      "TCCAGCC": 2993,
      "becomeĠ": 2994,
      "TGGAAAA": 2995,
      "import": 2996,
      "AGCTAG": 2997,
      ",ĠwhoĠ": 2998,
      "Comm": 2999,
      "spe": 3000,
      "At": 3001,
      "...Ġ": 3002,
      "mark": 3003,
      "winĠ": 3004,
      "TATATAA": 3005,
      "cat": 3006,
      "ronĠ": 3007,
      "forceĠ": 3008,
      "presentĠ": 3009,
      "cle": 3010,
      "exĠ": 3011,
      "AAATTCC": 3012,
      "consider": 3013,
      "AAGTAC": 3014,
      "fail": 3015,
      "ribu": 3016,
      "ACCAGG": 3017,
      "not": 3018,
      "TGGATC": 3019,
      "TAGTAG": 3020,
      "canĠbeĠ": 3021,
      "edĠtoĠbeĠ": 3022,
      "fel": 3023,
      "nightĠ": 3024,
      "attackĠ": 3025,
      "TTTTCCC": 3026,
      "wasĠnotĠ": 3027,
      "men": 3028,
      "add": 3029,
      "AAGTTG": 3030,
      "wea": 3031,
      "ACTTGC": 3032,
      "TTTTTATT": 3033,
      "esĠthatĠ": 3034,
      "ATACG": 3035,
      "Scot": 3036,
      "moreĠthanĠ": 3037,
      "22Ġ": 3038,
      "21Ġ": 3039,
      "underĠtheĠ": 3040,
      "work": 3041,
      "companyĠ": 3042,
      "acros": 3043,
      "TCAATG": 3044,
      "TACTTC": 3045,
      "carri": 3046,
      "lightĠ": 3047,
      "ATGATT": 3048,
      "childrenĠ": 3049,
      "TATAGC": 3050,
      "sci": 3051,
      "gar": 3052,
      "ATCACTTG": 3053,
      "dueĠtoĠ": 3054,
      "AAAATGC": 3055,
      "contain": 3056,
      "TAĊ": 3057,
      "TACTGC": 3058,
      "aturesĠ": 3059,
      "ploy": 3060,
      "TGGATT": 3061,
      "edĠ\"Ġ": 3062,
      "thre": 3063,
      "prof": 3064,
      "takenĠ": 3065,
      "lev": 3066,
      "AGGATC": 3067,
      "ĠC": 3068,
      "AGGCTGGAGTGCAGTGGC": 3069,
      "fre": 3070,
      "TTCTTCC": 3071,
      "13": 3072,
      "ATATTTGG": 3073,
      "hom": 3074,
      "anaĠ": 3075,
      "againstĠtheĠ": 3076,
      "TTAAAAG": 3077,
      "act": 3078,
      "TATTTAA": 3079,
      "AGACGGGG": 3080,
      "AustraliaĠ": 3081,
      "GeneralĠ": 3082,
      "concer": 3083,
      "squ": 3084,
      "aur": 3085,
      "changeĠ": 3086,
      "asĠwellĠasĠ": 3087,
      "TCTAAG": 3088,
      "AACTTG": 3089,
      "GGCCC": 3090,
      "Rep": 3091,
      "omb": 3092,
      "TTGGCCAGGCTGG": 3093,
      "AGAATAA": 3094,
      "StateĠ": 3095,
      "ogetherĠ": 3096,
      "AGAGAAG": 3097,
      "seenĠ": 3098,
      "aneseĠ": 3099,
      "previousĠ": 3100,
      "Sy": 3101,
      "ACTTAC": 3102,
      "AAACACTCTTTT": 3103,
      "TTTGTTTG": 3104,
      "emsĠ": 3105,
      "ACACACACACACACAC": 3106,
      "goodĠ": 3107,
      "endsĠ": 3108,
      "tig": 3109,
      "endingĠ": 3110,
      "bus": 3111,
      "signific": 3112,
      "TGTTTTG": 3113,
      "AGACAGAG": 3114,
      "ĠL": 3115,
      "ertĠ": 3116,
      "outĠofĠ": 3117,
      "vir": 3118,
      "domĠ": 3119,
      "alĠofĠ": 3120,
      "eĠ,ĠbutĠ": 3121,
      "shortĠ": 3122,
      "ACCTAG": 3123,
      "houseĠ": 3124,
      "campa": 3125,
      "LondonĠ": 3126,
      "consist": 3127,
      "AGACGG": 3128,
      "involv": 3129,
      "TGGCCCC": 3130,
      "vol": 3131,
      "ei": 3132,
      "tropicalĠ": 3133,
      "ATGTGCC": 3134,
      "Her": 3135,
      "orĠ,Ġ": 3136,
      "TGAAAAC": 3137,
      "GCGC": 3138,
      "TCCCAAAGTGCTGGGATTACAGGC": 3139,
      "fav": 3140,
      ".ĠTheseĠ": 3141,
      "sesĠ": 3142,
      "singĠ": 3143,
      "partĠofĠ": 3144,
      "train": 3145,
      ".ĠJ": 3146,
      "theyĠwereĠ": 3147,
      "whichĠwasĠ": 3148,
      "ACTTAA": 3149,
      "ringĠ": 3150,
      "trav": 3151,
      "sĠofĠtheĠ": 3152,
      "TTTCACC": 3153,
      "lowĠ": 3154,
      "med": 3155,
      "TGTTATT": 3156,
      "AAGATC": 3157,
      "eightĠ": 3158,
      "kmĠ": 3159,
      "AAACCCC": 3160,
      "TTCTGCC": 3161,
      "Sec": 3162,
      "ankĠ": 3163,
      "AGTTTTG": 3164,
      "experi": 3165,
      "ATTTCTG": 3166,
      "Ang": 3167,
      "TTĊ": 3168,
      "compar": 3169,
      "ACTGAC": 3170,
      "bit": 3171,
      "AAGTCC": 3172,
      "AGAAGGC": 3173,
      "den": 3174,
      "performanceĠ": 3175,
      "boo": 3176,
      "marri": 3177,
      "Hi": 3178,
      "createdĠ": 3179,
      "ost": 3180,
      "tĠ'sĠ": 3181,
      "televisionĠ": 3182,
      "countryĠ": 3183,
      "fle": 3184,
      "urricaneĠ": 3185,
      "icul": 3186,
      "TAATTG": 3187,
      "controlĠ": 3188,
      "oundsĠ": 3189,
      "eĠ@-@Ġ": 3190,
      "introduc": 3191,
      "AAĊ": 3192,
      "historyĠ": 3193,
      "orgeĠ": 3194,
      "esĠ.ĠTheĠ": 3195,
      "angĠ": 3196,
      "tour": 3197,
      "pow": 3198,
      "ACTGTC": 3199,
      "ank": 3200,
      "TTATAT": 3201,
      "surv": 3202,
      "ologyĠ": 3203,
      "TTTCTTC": 3204,
      "ACAAGC": 3205,
      "TATATTC": 3206,
      "cir": 3207,
      "TCCAAC": 3208,
      "ATTCTCCTGCCTCAGCC": 3209,
      "waysĠ": 3210,
      "AGTTATT": 3211,
      "goĠ": 3212,
      "centĠ": 3213,
      "howeverĠ,Ġ": 3214,
      "TACAAC": 3215,
      "23Ġ": 3216,
      "occur": 3217,
      "nov": 3218,
      "rol": 3219,
      "TTAGTC": 3220,
      "ACGCC": 3221,
      "idd": 3222,
      "scri": 3223,
      "ĻĠ": 3224,
      "shouldĠ": 3225,
      ".ĠAlthoughĠ": 3226,
      "KingĠ": 3227,
      "doc": 3228,
      ",ĠheĠ": 3229,
      "StreetĠ": 3230,
      "ever": 3231,
      "TTGATG": 3232,
      "ATCAAAA": 3233,
      "missionĠ": 3234,
      "sĠ,ĠbutĠ": 3235,
      "ĠP": 3236,
      "serviceĠ": 3237,
      "TGTGTGTGTGTGTGTG": 3238,
      "rist": 3239,
      "Roy": 3240,
      "2010Ġ": 3241,
      "TGCGG": 3242,
      "onn": 3243,
      "returnĠ": 3244,
      "190": 3245,
      "Tr": 3246,
      "TTCCTTCC": 3247,
      "wan": 3248,
      "prob": 3249,
      "vill": 3250,
      "TAAAGC": 3251,
      "toryĠ": 3252,
      "four": 3253,
      "suggest": 3254,
      "AGGATT": 3255,
      "TGGTAC": 3256,
      "WilliamĠ": 3257,
      ".ĠHeĠwasĠ": 3258,
      "Nav": 3259,
      "TTTCTCC": 3260,
      "restĠ": 3261,
      "greatĠ": 3262,
      "includedĠ": 3263,
      "TGTTTCC": 3264,
      "designĠ": 3265,
      "ACAGAAG": 3266,
      "LĠ": 3267,
      "sĠ.ĠTheĠ": 3268,
      "politicalĠ": 3269,
      "ACCTCCC": 3270,
      "TTTCTTTT": 3271,
      "shar": 3272,
      "areasĠ": 3273,
      "TATTTTTT": 3274,
      "TGCTAG": 3275,
      "titleĠ": 3276,
      "TCTTTAA": 3277,
      "releaseĠ": 3278,
      "Mor": 3279,
      "rationĠ": 3280,
      "RiverĠ": 3281,
      "enĠ,Ġ": 3282,
      "augh": 3283,
      ".ĠAc": 3284,
      "JapaneseĠ": 3285,
      "AGGTCC": 3286,
      "AGTTTAA": 3287,
      "oweverĠ": 3288,
      "No": 3289,
      "inj": 3290,
      "hon": 3291,
      "TTGAGC": 3292,
      ":ĠĊ": 3293,
      "cast": 3294,
      "TACTCGGG": 3295,
      "60Ġ": 3296,
      "iorĠ": 3297,
      "intoĠaĠ": 3298,
      "28Ġ": 3299,
      "atĠaĠ": 3300,
      "faceĠ": 3301,
      "AGTTTCC": 3302,
      "pea": 3303,
      "esĠ,ĠandĠ": 3304,
      "throughoutĠ": 3305,
      "AAATGCC": 3306,
      "TCGCC": 3307,
      "verĠ": 3308,
      "radi": 3309,
      "tech": 3310,
      ".ĠThereĠ": 3311,
      "icha": 3312,
      "TGCTAA": 3313,
      "AAATAAC": 3314,
      "theĠfirstĠ": 3315,
      "gran": 3316,
      "opp": 3317,
      "âĢĻĠ": 3318,
      "AATATTC": 3319,
      "iter": 3320,
      "earli": 3321,
      "TAGGGC": 3322,
      "27Ġ": 3323,
      "tinĠ": 3324,
      "variousĠ": 3325,
      "togetherĠ": 3326,
      "artĠ": 3327,
      "comeĠ": 3328,
      "TTCTTTG": 3329,
      "eringĠ": 3330,
      "ATTAGC": 3331,
      "ATTTTGG": 3332,
      "wardsĠ": 3333,
      "includeĠ": 3334,
      "aĠ(Ġ": 3335,
      "etyĠ": 3336,
      "tooĠ": 3337,
      "TGCATC": 3338,
      "pointĠ": 3339,
      "TCGCCC": 3340,
      "siteĠ": 3341,
      "AGGCTGAGG": 3342,
      "ATCTCGGC": 3343,
      "DivisionĠ": 3344,
      "AGGAAGC": 3345,
      "GeorgeĠ": 3346,
      "ĠR": 3347,
      "ern": 3348,
      "esĠareĠ": 3349,
      "littleĠ": 3350,
      "edĠbyĠaĠ": 3351,
      "playedĠ": 3352,
      "earchĠ": 3353,
      "ici": 3354,
      "TTCACC": 3355,
      "wonĠ": 3356,
      "sevenĠ": 3357,
      "abilityĠ": 3358,
      ")Ġ.ĠĊ": 3359,
      "ofĠB": 3360,
      "chĠ,Ġ": 3361,
      "audi": 3362,
      "propos": 3363,
      "hous": 3364,
      "TCCCGAG": 3365,
      "AACACC": 3366,
      "TACAGC": 3367,
      "AATTTCC": 3368,
      "woodĠ": 3369,
      "zeĠ": 3370,
      "ularlyĠ": 3371,
      "lerĠ": 3372,
      "beforeĠtheĠ": 3373,
      "publish": 3374,
      "orityĠ": 3375,
      "ood": 3376,
      "TCTAAC": 3377,
      ".ĠForĠ": 3378,
      "TGCTTG": 3379,
      "asĠanĠ": 3380,
      "TATACC": 3381,
      "reportedĠ": 3382,
      "TTCAAAA": 3383,
      "whenĠtheĠ": 3384,
      "RoadĠ": 3385,
      "TGAAAAG": 3386,
      "peti": 3387,
      "fireĠ": 3388,
      "TTTATCC": 3389,
      "AGGTTGCAGTG": 3390,
      "tar": 3391,
      "usedĠtoĠ": 3392,
      "TAGATG": 3393,
      "JamesĠ": 3394,
      "charactersĠ": 3395,
      "liveĠ": 3396,
      "AGCGG": 3397,
      "TTCTCTC": 3398,
      "makingĠ": 3399,
      "ATTACC": 3400,
      "comman": 3401,
      "AGGTGGG": 3402,
      "Pet": 3403,
      "film": 3404,
      "releasedĠ": 3405,
      "icsĠ": 3406,
      "2011Ġ": 3407,
      "TACTAC": 3408,
      "AGAAGCC": 3409,
      "New": 3410,
      "ACAACC": 3411,
      "thoughtĠ": 3412,
      "TCTAGC": 3413,
      "@.@Ġ5Ġ": 3414,
      "minist": 3415,
      "26Ġ": 3416,
      "ure": 3417,
      "AAAGAAC": 3418,
      "bornĠ": 3419,
      "mentsĠ": 3420,
      "TGGTTG": 3421,
      "ingĠinĠ": 3422,
      "TCCCGGG": 3423,
      ".ĠAtĠ": 3424,
      "memberĠ": 3425,
      "strongĠ": 3426,
      "grow": 3427,
      "TAGTTTT": 3428,
      "timeĠ,Ġ": 3429,
      "14": 3430,
      "1Ġ@,@Ġ": 3431,
      "long": 3432,
      "AGCCAGGC": 3433,
      "feltĠ": 3434,
      "LeagueĠ": 3435,
      "esĠinĠtheĠ": 3436,
      "GGCG": 3437,
      "aseĠ": 3438,
      "ahĠ": 3439,
      "tsĠ,Ġ": 3440,
      "ATGGTGG": 3441,
      "OĠ": 3442,
      "Reg": 3443,
      "GCTCTG": 3444,
      "US": 3445,
      "Cap": 3446,
      "track": 3447,
      "endĠofĠtheĠ": 3448,
      "ATTTTGC": 3449,
      "voc": 3450,
      "sil": 3451,
      "TCTAGG": 3452,
      "ATTTATC": 3453,
      "notedĠ": 3454,
      "sianĠ": 3455,
      "ĠW": 3456,
      "ATGTTTT": 3457,
      "andĠwasĠ": 3458,
      "ingĠthatĠ": 3459,
      "commonĠ": 3460,
      "TTTGTTTT": 3461,
      "AAACAAAA": 3462,
      "tradi": 3463,
      "TGCTAC": 3464,
      "TTCAAGC": 3465,
      "leav": 3466,
      "ACAATC": 3467,
      "AGGACC": 3468,
      "utĠ": 3469,
      "inkĠ": 3470,
      "AAATGGG": 3471,
      "represent": 3472,
      "miĠ": 3473,
      "tsĠofĠ": 3474,
      "Hen": 3475,
      "TGGCCAACATGG": 3476,
      "aboutĠtheĠ": 3477,
      "hindĠ": 3478,
      "AAGAGAA": 3479,
      "TAAATAA": 3480,
      "eventuallyĠ": 3481,
      "locatedĠ": 3482,
      "ACAGTC": 3483,
      "AGCTTG": 3484,
      "inĠS": 3485,
      "Afric": 3486,
      "usingĠ": 3487,
      "ATATTCC": 3488,
      "bodyĠ": 3489,
      "GCTGC": 3490,
      "emor": 3491,
      "soldĠ": 3492,
      "identi": 3493,
      "inĠ199": 3494,
      "inĠB": 3495,
      "inningĠ": 3496,
      "emĠ": 3497,
      "TCTGCCC": 3498,
      "TCATAC": 3499,
      "atsĠ": 3500,
      "AustralianĠ": 3501,
      "lab": 3502,
      "bir": 3503,
      "AACTAG": 3504,
      "insteadĠ": 3505,
      "Ġ(Ġ": 3506,
      "AAAAATC": 3507,
      "respec": 3508,
      "ACCTCAGCC": 3509,
      "italĠ": 3510,
      "queĠ": 3511,
      "aj": 3512,
      "compos": 3513,
      "weekĠ": 3514,
      "AAGAAAC": 3515,
      "erĠofĠ": 3516,
      "TTTAACC": 3517,
      "sawĠ": 3518,
      "TCCTAG": 3519,
      "Vi": 3520,
      "ensiveĠ": 3521,
      "ArmyĠ": 3522,
      "TTAAATG": 3523,
      "yn": 3524,
      "playersĠ": 3525,
      "feetĠ": 3526,
      "ingdomĠ": 3527,
      "ACCTGGC": 3528,
      "2008Ġ": 3529,
      "Ne": 3530,
      "jec": 3531,
      "estim": 3532,
      "AGGAGGG": 3533,
      "TAACG": 3534,
      "womenĠ": 3535,
      "TTGATC": 3536,
      "iĠ,Ġ": 3537,
      "hun": 3538,
      "TCCTAC": 3539,
      "AAAATAG": 3540,
      "sha": 3541,
      "Gl": 3542,
      "Euro": 3543,
      "ement": 3544,
      "AAGACC": 3545,
      "presid": 3546,
      "fem": 3547,
      "ationĠandĠ": 3548,
      "ticsĠ": 3549,
      "moun": 3550,
      "styleĠ": 3551,
      "partĠ": 3552,
      "ootballĠ": 3553,
      "TCCTCCC": 3554,
      "AAAAAATT": 3555,
      "sett": 3556,
      "TCCTTCC": 3557,
      "AGĊ": 3558,
      "importantĠ": 3559,
      "bridgeĠ": 3560,
      "AGAAATC": 3561,
      "ratherĠ": 3562,
      "andĠS": 3563,
      "behindĠ": 3564,
      "popularĠ": 3565,
      "uk": 3566,
      "forĠhisĠ": 3567,
      "nomin": 3568,
      "destroy": 3569,
      "relation": 3570,
      "19Ġ": 3571,
      "GGGGG": 3572,
      "Bi": 3573,
      "encyĠ": 3574,
      "TGAGGCC": 3575,
      "Br": 3576,
      "tern": 3577,
      "indu": 3578,
      "ingĠhisĠ": 3579,
      "eĠ'sĠ": 3580,
      "TGGGGCC": 3581,
      "29Ġ": 3582,
      "iaĠ,Ġ": 3583,
      "risĠ": 3584,
      "TACATT": 3585,
      "inĠ)Ġ": 3586,
      "ACCCG": 3587,
      "ATGTGTG": 3588,
      "onceĠ": 3589,
      "TGTTTAA": 3590,
      "prac": 3591,
      "ticeĠ": 3592,
      "AGAAGGG": 3593,
      "TAATATT": 3594,
      "rep": 3595,
      "establish": 3596,
      "ificĠ": 3597,
      "cover": 3598,
      "ingĠ\"Ġ": 3599,
      "additionĠ": 3600,
      "TCTCAGC": 3601,
      "edi": 3602,
      "eenĠ": 3603,
      "prais": 3604,
      "Bro": 3605,
      "scre": 3606,
      "AACTGG": 3607,
      "classĠ": 3608,
      "TATATAT": 3609,
      "campaignĠ": 3610,
      ".ĠIn": 3611,
      "AACTCCTGACCTC": 3612,
      "exc": 3613,
      "rul": 3614,
      "ATCTTTT": 3615,
      "les": 3616,
      "wasĠalsoĠ": 3617,
      "reĠ@-@Ġ": 3618,
      "dsĠofĠ": 3619,
      "natur": 3620,
      "TAAAGG": 3621,
      "2012Ġ": 3622,
      "ACCCAGC": 3623,
      "ax": 3624,
      "ashĠ": 3625,
      "TCGGC": 3626,
      "ACTGAG": 3627,
      "189": 3628,
      "entĠ,Ġ": 3629,
      "EastĠ": 3630,
      "whiteĠ": 3631,
      "ACGGC": 3632,
      "portĠ": 3633,
      "AATTCCC": 3634,
      "ĠAĠ": 3635,
      "TACAAG": 3636,
      "fif": 3637,
      "yĠ'sĠ": 3638,
      "TAGGGG": 3639,
      "levelĠ": 3640,
      "visionĠ": 3641,
      "NĠ": 3642,
      "che": 3643,
      "ATTATAA": 3644,
      "routeĠ": 3645,
      "featuresĠ": 3646,
      "AGAAGCATTCTCAGAA": 3647,
      "TAAAAAC": 3648,
      "TGGGGGC": 3649,
      "RoyalĠ": 3650,
      "ATTCAAG": 3651,
      "Thom": 3652,
      "TCTTTCC": 3653,
      "electr": 3654,
      "ichaelĠ": 3655,
      "wif": 3656,
      "subsequ": 3657,
      "AGCAAAA": 3658,
      "sĠ,ĠwhichĠ": 3659,
      "2009Ġ": 3660,
      "TAAGGG": 3661,
      "TCACACC": 3662,
      "TACTTG": 3663,
      "alistĠ": 3664,
      "difficul": 3665,
      "kmĠ)Ġ": 3666,
      "separ": 3667,
      "ordĠ": 3668,
      "draw": 3669,
      "pen": 3670,
      "TCGGG": 3671,
      "CountyĠ": 3672,
      "eitherĠ": 3673,
      "WorldĠWarĠ": 3674,
      ")Ġ,ĠandĠ": 3675,
      "ib": 3676,
      "AGTTAG": 3677,
      "mir": 3678,
      "TGGTTTT": 3679,
      "TGACG": 3680,
      "AACAGAA": 3681,
      "esĠaĠ": 3682,
      "hasĠaĠ": 3683,
      "TAGCCC": 3684,
      ".ĠItĠisĠ": 3685,
      "sĠthatĠ": 3686,
      "EĠ": 3687,
      "ATTTCCC": 3688,
      "stre": 3689,
      "agedĠ": 3690,
      "ATTACAGGC": 3691,
      "Franc": 3692,
      "law": 3693,
      "supportĠ": 3694,
      "righ": 3695,
      "fromĠaĠ": 3696,
      "figh": 3697,
      "ush": 3698,
      "originallyĠ": 3699,
      "TACTTTT": 3700,
      "Europ": 3701,
      "tionĠ=Ġ=ĠĊ": 3702,
      "ACAGAGC": 3703,
      "stonĠ": 3704,
      "ATTTATG": 3705,
      "inesĠ": 3706,
      "TTCCG": 3707,
      "TGCCG": 3708,
      "agesĠ": 3709,
      "rap": 3710,
      "post": 3711,
      "edĠofĠ": 3712,
      "roundĠ": 3713,
      "TCTTATT": 3714,
      "Ã¡": 3715,
      "pointsĠ": 3716,
      "observ": 3717,
      "thĠandĠ": 3718,
      "fig": 3719,
      "80Ġ": 3720,
      "associ": 3721,
      "dou": 3722,
      "\"ĠtheĠ": 3723,
      ".ĠAtĠtheĠ": 3724,
      "sĠaĠ": 3725,
      "encesĠ": 3726,
      "ATTATTC": 3727,
      "scrip": 3728,
      "achi": 3729,
      "workingĠ": 3730,
      "lĠ@-@Ġ": 3731,
      "Ear": 3732,
      "AATCG": 3733,
      "readyĠ": 3734,
      "TATATAC": 3735,
      "upĠtoĠ": 3736,
      "avail": 3737,
      "dev": 3738,
      "almostĠ": 3739,
      "order": 3740,
      "TATAAAC": 3741,
      "\"Ġ.ĠTheĠ": 3742,
      "plan": 3743,
      "return": 3744,
      "andingĠ": 3745,
      "sĠareĠ": 3746,
      "towardsĠ": 3747,
      "gunĠ": 3748,
      "TGCACC": 3749,
      "everyĠ": 3750,
      "whileĠtheĠ": 3751,
      "TGCAGTG": 3752,
      "TACTAAAAATACAAAAATT": 3753,
      "AAATTGC": 3754,
      "cam": 3755,
      "ACTATC": 3756,
      "ATTTGAA": 3757,
      "TCCGC": 3758,
      "laun": 3759,
      "Ital": 3760,
      "TTAATAA": 3761,
      "Chris": 3762,
      "AAATCTC": 3763,
      "allĠ,Ġ": 3764,
      "200Ġ": 3765,
      "pain": 3766,
      "Vir": 3767,
      "TGATATT": 3768,
      "anĠ'sĠ": 3769,
      "ATGCG": 3770,
      "AAATGGC": 3771,
      "TGTAATCCCAGCTAC": 3772,
      "Mad": 3773,
      "hour": 3774,
      "neg": 3775,
      "aul": 3776,
      "successfulĠ": 3777,
      "generalĠ": 3778,
      "heavyĠ": 3779,
      "elĠ,Ġ": 3780,
      "ATCATTC": 3781,
      "shor": 3782,
      "youngĠ": 3783,
      "essionĠ": 3784,
      "Sch": 3785,
      "kmĠ/Ġ": 3786,
      "resĠ(Ġ": 3787,
      "TTACG": 3788,
      "raĠ": 3789,
      "organiz": 3790,
      "raceĠ": 3791,
      "ust": 3792,
      "broughtĠ": 3793,
      "mater": 3794,
      "TGCAAC": 3795,
      "stand": 3796,
      "BestĠ": 3797,
      "TGTTAG": 3798,
      "dic": 3799,
      "wideĠ": 3800,
      "recog": 3801,
      "residentĠ": 3802,
      "amaĠ": 3803,
      "minut": 3804,
      "effor": 3805,
      "Fin": 3806,
      "AGATGGG": 3807,
      "sheĠwasĠ": 3808,
      "AGATAT": 3809,
      "eĠ,ĠwhichĠ": 3810,
      "TGCTGGG": 3811,
      "enceĠofĠ": 3812,
      "troop": 3813,
      "TGCTTTT": 3814,
      "hand": 3815,
      "ologicalĠ": 3816,
      "regionĠ": 3817,
      "TTTCTAA": 3818,
      "\"ĠTheĠ": 3819,
      "piec": 3820,
      "possibleĠ": 3821,
      "ATGTATT": 3822,
      "tianĠ": 3823,
      "TTTGAGGCC": 3824,
      "east": 3825,
      "eph": 3826,
      "indic": 3827,
      "Ġ=Ġ=Ġ=Ġ=Ġ": 3828,
      "comment": 3829,
      "motherĠ": 3830,
      "TGATAG": 3831,
      "putĠ": 3832,
      "ACTAAG": 3833,
      "econom": 3834,
      "ĠAfterĠ": 3835,
      "TCCCAGG": 3836,
      "kmĠ/ĠhĠ": 3837,
      "leastĠ": 3838,
      "\"ĠwasĠ": 3839,
      "prec": 3840,
      "TAGTTC": 3841,
      "0Ġ@.@Ġ": 3842,
      "ashingtonĠ": 3843,
      "ampionshipĠ": 3844,
      "nonĠ@-@Ġ": 3845,
      "say": 3846,
      "ACCCTGTCTC": 3847,
      "addi": 3848,
      "\"Ġ,ĠandĠ": 3849,
      "ateĠtheĠ": 3850,
      "AAGGAAGG": 3851,
      "AAAGTAA": 3852,
      "asterĠ": 3853,
      "fullyĠ": 3854,
      "aticĠ": 3855,
      "CCCGGC": 3856,
      "cel": 3857,
      "seeĠ": 3858,
      "ATTTAAG": 3859,
      "TATATATT": 3860,
      "Europe": 3861,
      "Pri": 3862,
      "Scho": 3863,
      "stryĠ": 3864,
      "individ": 3865,
      "consideredĠ": 3866,
      "closeĠ": 3867,
      "conn": 3868,
      "ellingĠ": 3869,
      "ittedĠ": 3870,
      "ATTTCAC": 3871,
      "2007Ġ": 3872,
      "TGĊ": 3873,
      ",ĠwithĠ": 3874,
      "aut": 3875,
      "turalĠ": 3876,
      "AAATAAG": 3877,
      "occ": 3878,
      "westernĠ": 3879,
      "sour": 3880,
      "sĠinĠtheĠ": 3881,
      "educ": 3882,
      "TTCATTC": 3883,
      "inĠanĠ": 3884,
      "record": 3885,
      "AGAGCCC": 3886,
      "employ": 3887,
      "Mil": 3888,
      "loo": 3889,
      "heĠhadĠ": 3890,
      "AGGCCGAGGC": 3891,
      "agoĠ": 3892,
      "exist": 3893,
      "vers": 3894,
      "alongĠtheĠ": 3895,
      "TTTGAGG": 3896,
      "TACATC": 3897,
      "John": 3898,
      "down": 3899,
      "gerĠ": 3900,
      "ParkĠ": 3901,
      "generallyĠ": 3902,
      "TTTGTAG": 3903,
      "TGCTTTC": 3904,
      "adem": 3905,
      "broad": 3906,
      "TGGCTCACGCC": 3907,
      "discover": 3908,
      "legeĠ": 3909,
      "plann": 3910,
      "ĠAl": 3911,
      "AAGCCCC": 3912,
      "apĠ": 3913,
      "chesĠ": 3914,
      "Cre": 3915,
      "AAAATATT": 3916,
      "atedĠtheĠ": 3917,
      "soonĠ": 3918,
      "Mal": 3919,
      "aidĠ": 3920,
      "DavidĠ": 3921,
      "Se": 3922,
      "enter": 3923,
      "sor": 3924,
      "arkĠ": 3925,
      "TAAAATG": 3926,
      "andĠhisĠ": 3927,
      "requir": 3928,
      "fewĠ": 3929,
      "BattleĠ": 3930,
      "nĠ'tĠ": 3931,
      "conv": 3932,
      "Cour": 3933,
      "stageĠ": 3934,
      "irstĠ": 3935,
      "super": 3936,
      "busin": 3937,
      "TTTGTATT": 3938,
      "expres": 3939,
      "clubĠ": 3940,
      "Bur": 3941,
      "500Ġ": 3942,
      "edĠ.ĠĊ": 3943,
      "ge": 3944,
      "partyĠ": 3945,
      "inform": 3946,
      "TACTCC": 3947,
      "AGGTGCC": 3948,
      "modernĠ": 3949,
      "AGCTGGGC": 3950,
      "ecu": 3951,
      "byĠaĠ": 3952,
      "aldĠ": 3953,
      "TTCCTTC": 3954,
      "blackĠ": 3955,
      "ndĠ": 3956,
      "AGAGGCC": 3957,
      "Am": 3958,
      "nessĠ": 3959,
      "six": 3960,
      "battleĠ": 3961,
      "leng": 3962,
      "TTTGGGG": 3963,
      "art": 3964,
      "exten": 3965,
      "helpĠ": 3966,
      "TGAATAA": 3967,
      "ainedĠ": 3968,
      "edĠinĠaĠ": 3969,
      "ACTAAC": 3970,
      "captur": 3971,
      "assist": 3972,
      "ATCTCAGC": 3973,
      "idĠ@-@Ġ": 3974,
      "mphĠ": 3975,
      "TAATTTTTGTATTTTTAGTAG": 3976,
      "70Ġ": 3977,
      "AGGGGCC": 3978,
      "mix": 3979,
      "Mo": 3980,
      "Squ": 3981,
      "rĠ": 3982,
      "esterĠ": 3983,
      "AGAAAGC": 3984,
      "roomĠ": 3985,
      "ĠTh": 3986,
      "TCAATC": 3987,
      "metĠ": 3988,
      "stationĠ": 3989,
      "TGGTGTG": 3990,
      "ovi": 3991,
      "ATTTGTG": 3992,
      ")Ġ.ĠTheĠ": 3993,
      "foc": 3994,
      "TTTGAAG": 3995,
      "tĠwasĠ": 3996,
      "signedĠ": 3997,
      "duceĠ": 3998,
      "pedĠ": 3999,
      "AACAGG": 4000,
      "TGGTCC": 4001,
      "AGAAAGG": 4002,
      "GGCCCC": 4003,
      "ATTCCCC": 4004,
      "TTTTTAG": 4005,
      "conduc": 4006,
      "woĠ": 4007,
      "AAAAATAA": 4008,
      "evid": 4009,
      "echĠ": 4010,
      "TGGCTAAC": 4011,
      "edĠasĠaĠ": 4012,
      "effec": 4013,
      "shotĠ": 4014,
      "deter": 4015,
      "ession": 4016,
      "worksĠ": 4017,
      "AATTCTC": 4018,
      "TATTTCC": 4019,
      "\"Ġ(Ġ": 4020,
      "openĠ": 4021,
      "torsĠ": 4022,
      "FĠ": 4023,
      "TTATTCC": 4024,
      ".ĠWhileĠ": 4025,
      "did": 4026,
      "AAAATTC": 4027,
      "Ab": 4028,
      "TCAATAA": 4029,
      "TGTATTC": 4030,
      "Fil": 4031,
      "Ġ,ĠbutĠ": 4032,
      "WashingtonĠ": 4033,
      "bat": 4034,
      "ATCAGG": 4035,
      "EuropeanĠ": 4036,
      "TTGACC": 4037,
      "AGCCAGG": 4038,
      "KĠ": 4039,
      "ligh": 4040,
      "AGAAATAA": 4041,
      "startedĠ": 4042,
      "class": 4043,
      "enseĠ": 4044,
      "TTGTTTC": 4045,
      "chi": 4046,
      "driv": 4047,
      "onesĠ": 4048,
      "prepar": 4049,
      "TAGCTGGGATTACAGGC": 4050,
      "edĠitĠ": 4051,
      "cycl": 4052,
      "Dr": 4053,
      "intend": 4054,
      "withĠhisĠ": 4055,
      "AGCCTCC": 4056,
      "TTATATG": 4057,
      "TAACCC": 4058,
      "urĠ": 4059,
      "AGATTTC": 4060,
      "itte": 4061,
      "ACTCAG": 4062,
      "officialĠ": 4063,
      "affĠ": 4064,
      "damageĠ": 4065,
      "TAATCC": 4066,
      "TGTGTCC": 4067,
      "islandĠ": 4068,
      "ox": 4069,
      "ATCTTTC": 4070,
      "tionĠ,Ġ": 4071,
      "my": 4072,
      "public": 4073,
      "landsĠ": 4074,
      "Vic": 4075,
      "Chin": 4076,
      "usĠ,Ġ": 4077,
      "TCTTCCC": 4078,
      "gin": 4079,
      "oul": 4080,
      "AGCAGTTTTG": 4081,
      "vesĠ": 4082,
      "exampl": 4083,
      "GTGGTGGC": 4084,
      "rainĠ": 4085,
      "othersĠ": 4086,
      "TAATGG": 4087,
      "spor": 4088,
      "illeĠ": 4089,
      "TGTTTGC": 4090,
      "Rich": 4091,
      "TGTAATCCC": 4092,
      "TGAGGTCAGGAG": 4093,
      "AirĠ": 4094,
      "contribu": 4095,
      "\"ĠandĠ\"Ġ": 4096,
      "TTTGCCC": 4097,
      "particularlyĠ": 4098,
      "mot": 4099,
      "promo": 4100,
      "highwayĠ": 4101,
      "TGAACCC": 4102,
      "inspir": 4103,
      "AAAGGGC": 4104,
      "TCTTAG": 4105,
      "AGCTGTG": 4106,
      "AAAAGGC": 4107,
      "Republ": 4108,
      "largestĠ": 4109,
      "ourn": 4110,
      "withinĠtheĠ": 4111,
      "appoin": 4112,
      "tsĠandĠ": 4113,
      "vent": 4114,
      "isĠ,Ġ": 4115,
      "abor": 4116,
      "fourthĠ": 4117,
      "ACATAG": 4118,
      "TGGAGGC": 4119,
      "initiallyĠ": 4120,
      "kyĠ": 4121,
      "atorsĠ": 4122,
      "agg": 4123,
      "sureĠ": 4124,
      "wonĠtheĠ": 4125,
      "activeĠ": 4126,
      "ATGACC": 4127,
      "ATATCTC": 4128,
      "ageĠ,Ġ": 4129,
      "TAAACC": 4130,
      "surviv": 4131,
      "ATTTGTC": 4132,
      "southernĠ": 4133,
      "bil": 4134,
      "TGGTCTC": 4135,
      "serveĠ": 4136,
      "remov": 4137,
      "significantĠ": 4138,
      "TTCTCTG": 4139,
      "AAATTGG": 4140,
      "TGGGAAG": 4141,
      "doesĠ": 4142,
      "ATTTAAC": 4143,
      "uni": 4144,
      "efor": 4145,
      "ACATGCC": 4146,
      "eventĠ": 4147,
      "PĠ": 4148,
      "Hun": 4149,
      "TAGAGG": 4150,
      "aliz": 4151,
      "Val": 4152,
      "andĠ,Ġ": 4153,
      "TTTCTGC": 4154,
      "TTCTATT": 4155,
      "AGGGAAG": 4156,
      "conc": 4157,
      "pot": 4158,
      "TAGAGC": 4159,
      "multi": 4160,
      "rockĠ": 4161,
      "AAGGAAG": 4162,
      "mentĠofĠ": 4163,
      "TACTGG": 4164,
      "UniversityĠ": 4165,
      "ĠWh": 4166,
      "ACTACC": 4167,
      "reas": 4168,
      "magaz": 4169,
      "Pal": 4170,
      "ĠInĠtheĠ": 4171,
      "ioĠ": 4172,
      "TCTTTTG": 4173,
      "atĠnumberĠ": 4174,
      "TTTTTGC": 4175,
      "TTCCTCC": 4176,
      "Cam": 4177,
      "2013Ġ": 4178,
      "TTCTCCC": 4179,
      "AACGC": 4180,
      "ATCCG": 4181,
      "highestĠ": 4182,
      "Â°": 4183,
      "erousĠ": 4184,
      "any": 4185,
      ".ĠDuringĠtheĠ": 4186,
      "TGAATAG": 4187,
      "2Ġ@.@Ġ": 4188,
      "agu": 4189,
      "toĠhisĠ": 4190,
      "wid": 4191,
      "toĠhaveĠ": 4192,
      "Tur": 4193,
      "forcesĠ": 4194,
      "We": 4195,
      "cesĠ": 4196,
      "TCCCCCC": 4197,
      "pil": 4198,
      "TATATTG": 4199,
      "tourĠ": 4200,
      "TGCGC": 4201,
      "clas": 4202,
      "AGACTCC": 4203,
      "songsĠ": 4204,
      "AACTTTT": 4205,
      "TATAGG": 4206,
      "servic": 4207,
      "ATGGGGG": 4208,
      "KingdomĠ": 4209,
      "ocialĠ": 4210,
      "nav": 4211,
      "basedĠonĠ": 4212,
      "ATGTTTC": 4213,
      "AAAAGAAAA": 4214,
      "AGATGGC": 4215,
      "TGTAGTCCCAGCTAC": 4216,
      "priv": 4217,
      "pic": 4218,
      "TGTTCTC": 4219,
      "TAAAATAA": 4220,
      "AATTTAC": 4221,
      "TTCCTTG": 4222,
      "gramĠ": 4223,
      "1stĠ": 4224,
      "ersĠwereĠ": 4225,
      "meas": 4226,
      "found": 4227,
      "Em": 4228,
      "sonĠ,Ġ": 4229,
      "ai": 4230,
      "competi": 4231,
      ".ĠWithĠ": 4232,
      "Jer": 4233,
      "TGGTGGC": 4234,
      "Ale": 4235,
      "Cali": 4236,
      "AATATTG": 4237,
      "TTCCCCC": 4238,
      "TCTTGCC": 4239,
      "AGAGAAC": 4240,
      "aulĠ": 4241,
      "TCATAG": 4242,
      "ATAAGCC": 4243,
      "net": 4244,
      "langu": 4245,
      "ACCAAAA": 4246,
      "loveĠ": 4247,
      "immedi": 4248,
      "ACTAGG": 4249,
      "lear": 4250,
      ".Ġ\"ĠTheĠ": 4251,
      "TTCTGTG": 4252,
      "Compan": 4253,
      "HenryĠ": 4254,
      "TTAATTTT": 4255,
      "TGGCCAAC": 4256,
      "Hol": 4257,
      "MusicĠ": 4258,
      "playingĠ": 4259,
      "essĠ,Ġ": 4260,
      "iddleĠ": 4261,
      "TGAAATG": 4262,
      "keyĠ": 4263,
      "aroundĠtheĠ": 4264,
      "2006Ġ": 4265,
      "acqu": 4266,
      "aĠwasĠ": 4267,
      "ACCACAC": 4268,
      "relig": 4269,
      "character": 4270,
      "TGCAGCC": 4271,
      "oĠ'sĠ": 4272,
      "TGGGAGGC": 4273,
      "iss": 4274,
      "forn": 4275,
      "nar": 4276,
      "adronĠ": 4277,
      "tun": 4278,
      "Po": 4279,
      "leĠ,Ġ": 4280,
      "edĠhimĠ": 4281,
      "AGGTGTGAGCC": 4282,
      "epend": 4283,
      "TTTCTTTTC": 4284,
      "InĠ": 4285,
      "oph": 4286,
      "TATTTAC": 4287,
      "milesĠ(Ġ": 4288,
      "ressionĠ": 4289,
      "Sou": 4290,
      "12": 4291,
      "pli": 4292,
      "ketĠ": 4293,
      "ACTCG": 4294,
      "TGCTGCC": 4295,
      "ACCCGCC": 4296,
      "combin": 4297,
      "AAATCCC": 4298,
      "TCCCTCCC": 4299,
      "ATATGGC": 4300,
      "writingĠ": 4301,
      "TTTTTAC": 4302,
      "independ": 4303,
      "TGGAAGG": 4304,
      "BCĠ": 4305,
      "AAAACCC": 4306,
      "RobertĠ": 4307,
      "northernĠ": 4308,
      "lawĠ": 4309,
      "AAAACG": 4310,
      "eĠwasĠ": 4311,
      "amentĠ": 4312,
      "accep": 4313,
      "ment": 4314,
      "defin": 4315,
      "ACTTATT": 4316,
      "ersĠtoĠ": 4317,
      "earlierĠ": 4318,
      "AAAAGCC": 4319,
      "TGCATT": 4320,
      "farĠ": 4321,
      "reduc": 4322,
      "chedĠ": 4323,
      "particip": 4324,
      ".ĠSt": 4325,
      "TTTAAGG": 4326,
      "TAGCTGGGACTACAGGC": 4327,
      "viol": 4328,
      "ATATATAA": 4329,
      "AGAGGTTGCAGTG": 4330,
      "school": 4331,
      "3Ġ@.@Ġ": 4332,
      "sĠandĠtheĠ": 4333,
      "plat": 4334,
      "AAGATT": 4335,
      "TCTCCCC": 4336,
      "umb": 4337,
      "centur": 4338,
      "MichaelĠ": 4339,
      "=Ġ=Ġ=Ġ=ĠĊ": 4340,
      ".ĠIĠ": 4341,
      "TGGGATT": 4342,
      "CharlesĠ": 4343,
      "ask": 4344,
      "TCTGTAA": 4345,
      "etingĠ": 4346,
      "daugh": 4347,
      "TGATTTC": 4348,
      "Christ": 4349,
      "betterĠ": 4350,
      "Mi": 4351,
      "amoun": 4352,
      "ATATTGG": 4353,
      "TTGATT": 4354,
      "iansĠ": 4355,
      "vot": 4356,
      "Angel": 4357,
      "iesĠ,Ġ": 4358,
      "AGCCCCC": 4359,
      "north": 4360,
      "commerc": 4361,
      "specialĠ": 4362,
      "victoryĠ": 4363,
      "midĠ@-@Ġ": 4364,
      "eth": 4365,
      "endĠofĠ": 4366,
      "accoun": 4367,
      "TGTCG": 4368,
      "whoĠhadĠ": 4369,
      "GreatĠ": 4370,
      "ACAATAA": 4371,
      "Rev": 4372,
      "TTGCG": 4373,
      "usuallyĠ": 4374,
      "ek": 4375,
      "TGGAAGC": 4376,
      "alĠ@-@Ġ": 4377,
      "TGAGCCC": 4378,
      "35Ġ": 4379,
      "ATGAGAA": 4380,
      "\"ĠaĠ": 4381,
      "ACCATGCC": 4382,
      "TATAAAG": 4383,
      "Mac": 4384,
      "eraĠ": 4385,
      "humanĠ": 4386,
      "AGGAGAG": 4387,
      "includingĠtheĠ": 4388,
      "illi": 4389,
      "mustĠ": 4390,
      "toldĠ": 4391,
      "gir": 4392,
      "AGCAGAG": 4393,
      "hitĠ": 4394,
      "recordedĠ": 4395,
      "TCTCTGC": 4396,
      "positiveĠ": 4397,
      "AATTTGC": 4398,
      "fr": 4399,
      "oppos": 4400,
      "ATATGCC": 4401,
      "crewĠ": 4402,
      "projectĠ": 4403,
      "Fre": 4404,
      "clu": 4405,
      "ATTCTGG": 4406,
      "achiev": 4407,
      "ATCACG": 4408,
      "near": 4409,
      "ersĠofĠ": 4410,
      "monthsĠ": 4411,
      "workedĠ": 4412,
      "alis": 4413,
      "ratherĠthanĠ": 4414,
      "TTTTATT": 4415,
      "civ": 4416,
      "activ": 4417,
      "75Ġ": 4418,
      "AAAAAGC": 4419,
      "ĠN": 4420,
      "TTTCTTG": 4421,
      "TCTCTCC": 4422,
      "fallĠ": 4423,
      "guit": 4424,
      "ingĠitĠ": 4425,
      "TTTGTTG": 4426,
      "ranĠ": 4427,
      "soundĠ": 4428,
      "atedĠbyĠ": 4429,
      "AGTCG": 4430,
      "oĠandĠ": 4431,
      "moveĠ": 4432,
      "ben": 4433,
      "hurricaneĠ": 4434,
      "tom": 4435,
      "inglyĠ": 4436,
      "Californ": 4437,
      "ellsĠ": 4438,
      "antryĠ": 4439,
      "AACATTC": 4440,
      "PresidentĠ": 4441,
      "oleĠ": 4442,
      "stra": 4443,
      "AGTCTGC": 4444,
      "ullĠ": 4445,
      "TGTGGTGGC": 4446,
      "FirstĠ": 4447,
      "TTGAGCCC": 4448,
      "appearanceĠ": 4449,
      "AAAGGCC": 4450,
      "bul": 4451,
      "quick": 4452,
      "TTATAAAA": 4453,
      "alionĠ": 4454,
      "BĠ": 4455,
      "YĠ": 4456,
      "seasonĠ,Ġ": 4457,
      "risonĠ": 4458,
      "responsi": 4459,
      "TATAGAA": 4460,
      "Bel": 4461,
      "proper": 4462,
      "previouslyĠ": 4463,
      "TGAAGCC": 4464,
      "itselfĠ": 4465,
      "TGTTTGG": 4466,
      "break": 4467,
      "ques": 4468,
      "phys": 4469,
      "AGGGCCC": 4470,
      "domin": 4471,
      "AAGAATG": 4472,
      "De": 4473,
      ".ĠAccordingĠtoĠ": 4474,
      "estig": 4475,
      "omet": 4476,
      "portra": 4477,
      "commandĠ": 4478,
      "donĠ": 4479,
      "otsĠ": 4480,
      "AAAAGGG": 4481,
      "spentĠ": 4482,
      "seaĠ": 4483,
      "TTTTGGC": 4484,
      "sĠ(Ġ": 4485,
      "useĠofĠ": 4486,
      "ataĠ": 4487,
      "allĠtheĠ": 4488,
      "findĠ": 4489,
      "AGCAGCC": 4490,
      "AAACTGC": 4491,
      "till": 4492,
      "ACAAAAC": 4493,
      "erĠofĠtheĠ": 4494,
      "aboveĠ": 4495,
      "weeksĠ": 4496,
      "ATTTCTTC": 4497,
      "U.S.Ġ": 4498,
      "happ": 4499,
      "beganĠtoĠ": 4500,
      "Ġ,ĠwhichĠ": 4501,
      "188": 4502,
      "whereĠtheĠ": 4503,
      "ricĠ": 4504,
      "acyĠ": 4505,
      "rail": 4506,
      "Sw": 4507,
      "centralĠ": 4508,
      "giveĠ": 4509,
      "returnedĠtoĠ": 4510,
      "TCCCTGC": 4511,
      "bomb": 4512,
      "icanĠ": 4513,
      "ACATATT": 4514,
      "No.Ġ": 4515,
      "couldĠbeĠ": 4516,
      "mayĠbeĠ": 4517,
      "postĠ": 4518,
      "ACGGG": 4519,
      "fullĠ": 4520,
      "fed": 4521,
      "hop": 4522,
      "rangeĠ": 4523,
      "reng": 4524,
      "TTTGGCC": 4525,
      "sex": 4526,
      "part": 4527,
      "urb": 4528,
      "InternationalĠ": 4529,
      "TGGACC": 4530,
      "AGAAATT": 4531,
      "TCAGCCC": 4532,
      "enoughĠ": 4533,
      "unc": 4534,
      "inĠ,Ġ": 4535,
      "termĠ": 4536,
      "AGATGCC": 4537,
      "oxĠ": 4538,
      "UnionĠ": 4539,
      "edĠanĠ": 4540,
      "AACGG": 4541,
      "High": 4542,
      "teenĠ": 4543,
      "Brit": 4544,
      "alĠandĠ": 4545,
      "eĠ,ĠaĠ": 4546,
      "mean": 4547,
      "knownĠasĠ": 4548,
      "AGTTTGG": 4549,
      "stsĠ": 4550,
      "syn": 4551,
      "AAATACC": 4552,
      "coĠ@-@Ġ": 4553,
      "Flor": 4554,
      "sus": 4555,
      "TTCCAGC": 4556,
      "recordingĠ": 4557,
      "alli": 4558,
      "£Ġ": 4559,
      "0sĠ,Ġ": 4560,
      "TGTGCCC": 4561,
      "bergĠ": 4562,
      "CupĠ": 4563,
      "relationshipĠ": 4564,
      "ThomasĠ": 4565,
      "thĠofĠ": 4566,
      "eed": 4567,
      "officeĠ": 4568,
      "31Ġ": 4569,
      "TTTCTAC": 4570,
      "trac": 4571,
      "cal": 4572,
      "AGAGCG": 4573,
      "AGACCATCC": 4574,
      "author": 4575,
      "cou": 4576,
      "ATCTTGGC": 4577,
      "standingĠ": 4578,
      "argu": 4579,
      "drewĠ": 4580,
      "nĠ,Ġ": 4581,
      "whoseĠ": 4582,
      "Jack": 4583,
      "plic": 4584,
      "charg": 4585,
      "Mat": 4586,
      "ixĠ": 4587,
      "TCACGCC": 4588,
      "don": 4589,
      "AGGCCAAGGC": 4590,
      "Associ": 4591,
      "TCCGG": 4592,
      "interestĠ": 4593,
      "AGTTTGC": 4594,
      "ershipĠ": 4595,
      "entireĠ": 4596,
      "TCCTAGC": 4597,
      "AAAGCCC": 4598,
      "TCAAATT": 4599,
      "beginningĠ": 4600,
      "TTTTGGG": 4601,
      "istsĠ": 4602,
      "openingĠ": 4603,
      "Res": 4604,
      "rup": 4605,
      "ellowĠ": 4606,
      "availableĠ": 4607,
      "TGGAAAC": 4608,
      "TACGG": 4609,
      "stitu": 4610,
      "AGGTTTG": 4611,
      "Med": 4612,
      "TGTGGCC": 4613,
      "ATTCTGC": 4614,
      "186": 4615,
      "onicĠ": 4616,
      "nineĠ": 4617,
      "ruis": 4618,
      "declar": 4619,
      "Sha": 4620,
      "AGGTGATCC": 4621,
      "ierĠ": 4622,
      "leagueĠ": 4623,
      "hos": 4624,
      "Ros": 4625,
      "ATCTCTC": 4626,
      "sceneĠ": 4627,
      "Ġ,ĠaĠ": 4628,
      "ativ": 4629,
      "ATCTGCC": 4630,
      "whomĠ": 4631,
      "isĠnotĠ": 4632,
      "occup": 4633,
      "TGAGAAC": 4634,
      "90Ġ": 4635,
      "ATTTGGG": 4636,
      "starĠ": 4637,
      "edsĠ": 4638,
      "ATCTTTG": 4639,
      "und": 4640,
      "AGGGGGC": 4641,
      "AmericaĠ": 4642,
      "ffĠ": 4643,
      "lackĠ": 4644,
      "reli": 4645,
      "commis": 4646,
      "ATGAAGC": 4647,
      "Â£Ġ": 4648,
      "tsĠtoĠ": 4649,
      "GCCCGCC": 4650,
      "FranceĠ": 4651,
      "TAGTTG": 4652,
      "streng": 4653,
      "ĠK": 4654,
      "engin": 4655,
      "TGACCTC": 4656,
      "studioĠ": 4657,
      "so": 4658,
      "alreadyĠ": 4659,
      "theastĠ": 4660,
      "unitsĠ": 4661,
      "inĠL": 4662,
      "churchĠ": 4663,
      "alongĠwithĠ": 4664,
      "soldi": 4665,
      "AGTGGGG": 4666,
      "corpor": 4667,
      "ACTTTTC": 4668,
      "imentĠ": 4669,
      "TTTTAAG": 4670,
      "electionĠ": 4671,
      "TCCCAAAGTGCTGGGATTAC": 4672,
      "eumĠ": 4673,
      "eeĠ": 4674,
      "ATTCTTC": 4675,
      "successĠ": 4676,
      "seriesĠofĠ": 4677,
      "Jos": 4678,
      "IndianĠ": 4679,
      "techn": 4680,
      "populationĠ": 4681,
      "carĠ": 4682,
      "personĠ": 4683,
      "freeĠ": 4684,
      "AAAATTG": 4685,
      "TCCCTCC": 4686,
      "aĠnewĠ": 4687,
      "internationalĠ": 4688,
      "âĢĻĠsĠ": 4689,
      "dri": 4690,
      "directorĠ": 4691,
      "TGCTGTG": 4692,
      "Play": 4693,
      "ATCTTCC": 4694,
      "Met": 4695,
      "TTTTGTAG": 4696,
      "enĠ'sĠ": 4697,
      "2014Ġ": 4698,
      "tou": 4699,
      "TGGAGAA": 4700,
      "onĠhisĠ": 4701,
      "TTCTTAA": 4702,
      "ATTCTCC": 4703,
      "AGAGATG": 4704,
      "totalĠ": 4705,
      "Air": 4706,
      "isc": 4707,
      "execu": 4708,
      "turnedĠ": 4709,
      "rowĠ": 4710,
      "ATAAATT": 4711,
      "AGGACAC": 4712,
      "ATATTGC": 4713,
      "amb": 4714,
      "TTCAGCC": 4715,
      "wasĠreleas": 4716,
      "Bra": 4717,
      "withinĠ": 4718,
      "progr": 4719,
      "lowerĠ": 4720,
      "ATCTCAC": 4721,
      "AAAGATG": 4722,
      "Cha": 4723,
      "AGATATG": 4724,
      "anal": 4725,
      "edĠwithĠtheĠ": 4726,
      "Govern": 4727,
      "ATCCATG": 4728,
      "TATATGC": 4729,
      "AGACCCC": 4730,
      "TAGATT": 4731,
      "decisionĠ": 4732,
      "coastĠ": 4733,
      "AAAAATAC": 4734,
      "Kor": 4735,
      "agĠ": 4736,
      "AGATTCC": 4737,
      "Isl": 4738,
      "itingĠ": 4739,
      "AATGTAA": 4740,
      "TTCAAGTGATTC": 4741,
      "45Ġ": 4742,
      "AGGAGAC": 4743,
      "Ag": 4744,
      "AACCG": 4745,
      "GCCG": 4746,
      "debutĠ": 4747,
      "van": 4748,
      "TGCCCCC": 4749,
      "quicklyĠ": 4750,
      "WesternĠ": 4751,
      "IslandĠ": 4752,
      "TGTGATG": 4753,
      "AATATCC": 4754,
      "TGTCCCC": 4755,
      "old": 4756,
      "TTGCTCTG": 4757,
      "build": 4758,
      "movedĠ": 4759,
      "jud": 4760,
      "atedĠtoĠ": 4761,
      "TGGGTGG": 4762,
      "TGGGCCC": 4763,
      "excep": 4764,
      "laterĠ,Ġ": 4765,
      "AGAGGGC": 4766,
      "armyĠ": 4767,
      "TTTATGC": 4768,
      "TTCTCAC": 4769,
      "TGTGAAG": 4770,
      "enthĠ": 4771,
      "AGAGAGC": 4772,
      "control": 4773,
      "untilĠtheĠ": 4774,
      "atĠleastĠ": 4775,
      "polic": 4776,
      "isĠanĠ": 4777,
      "TCCTTTT": 4778,
      "TATAAATT": 4779,
      "AGGGAGGG": 4780,
      ".ĠOneĠ": 4781,
      "ACAATT": 4782,
      "additionalĠ": 4783,
      "AAAAAGG": 4784,
      "ACCATT": 4785,
      "TCTTTGC": 4786,
      "TCTTCTC": 4787,
      "ideaĠ": 4788,
      "ATATATC": 4789,
      "likelyĠ": 4790,
      "TAATTTC": 4791,
      "Ter": 4792,
      "programĠ": 4793,
      "redĠtoĠ": 4794,
      "sĠfromĠ": 4795,
      "recogn": 4796,
      "moneyĠ": 4797,
      "AGTTCCC": 4798,
      "orĠofĠ": 4799,
      "allowĠ": 4800,
      "viaĠ": 4801,
      "eĠ(Ġ": 4802,
      "throughoutĠtheĠ": 4803,
      "yearĠ,Ġ": 4804,
      "AwardĠ": 4805,
      "mb": 4806,
      "TACAGAA": 4807,
      "ith": 4808,
      "set": 4809,
      "espec": 4810,
      "alsĠ,Ġ": 4811,
      "brotherĠ": 4812,
      "inĠ@-@Ġ": 4813,
      "leadingĠ": 4814,
      "AATGGGG": 4815,
      "ferenceĠ": 4816,
      "situ": 4817,
      "flo": 4818,
      "TAGTGG": 4819,
      "Sen": 4820,
      "AAGATGG": 4821,
      "AACAAAC": 4822,
      "ATTTCGTTGGAAACGGG": 4823,
      "frequ": 4824,
      "test": 4825,
      "Tri": 4826,
      "\"ĠS": 4827,
      "siaĠ": 4828,
      "AAAGGGG": 4829,
      "aiĠ": 4830,
      "AGTGGGC": 4831,
      "TCCTCTC": 4832,
      "ATGCTGC": 4833,
      "reachedĠ": 4834,
      "TCCTTTC": 4835,
      "TCAAAAC": 4836,
      ".ĠV": 4837,
      "anĠandĠ": 4838,
      "Virgin": 4839,
      "award": 4840,
      "bitĠ": 4841,
      "readĠ": 4842,
      "TATTCAAC": 4843,
      "TTTAGCC": 4844,
      "edyĠ": 4845,
      "especiallyĠ": 4846,
      "TTATAAG": 4847,
      "TTCTGGG": 4848,
      "Hor": 4849,
      "mightĠ": 4850,
      "ACACAGC": 4851,
      "maryĠ": 4852,
      "TCAGAAG": 4853,
      "trainingĠ": 4854,
      "TATCG": 4855,
      "TCTCAAAC": 4856,
      "ancesĠ": 4857,
      "TTGGGGG": 4858,
      "antlyĠ": 4859,
      "olutionĠ": 4860,
      "ument": 4861,
      "II": 4862,
      "TGAAGGC": 4863,
      "2ĠâĢĵĠ": 4864,
      "Dan": 4865,
      "isĠalsoĠ": 4866,
      "Pe": 4867,
      "heal": 4868,
      "Pac": 4869,
      "TCATATT": 4870,
      "TACTAG": 4871,
      "TATTTGC": 4872,
      "Club": 4873,
      "acrossĠtheĠ": 4874,
      "enem": 4875,
      "twoĠ@-@Ġ": 4876,
      "easternĠ": 4877,
      "remainedĠ": 4878,
      "AGAGAAAA": 4879,
      "socialĠ": 4880,
      ".ĠU": 4881,
      "TACAGG": 4882,
      "ACACACC": 4883,
      "ATTCATTC": 4884,
      "arsĠ": 4885,
      ".ĠDesp": 4886,
      "dom": 4887,
      "eĠofĠtheĠ": 4888,
      "AATATGG": 4889,
      "AGCTTCC": 4890,
      "holdĠ": 4891,
      "SchoolĠ": 4892,
      "Chi": 4893,
      "TTGAGCC": 4894,
      "The": 4895,
      "lyric": 4896,
      "ect": 4897,
      "intĠ": 4898,
      "2005Ġ": 4899,
      "percentĠ": 4900,
      "whereĠheĠ": 4901,
      "odayĠ": 4902,
      "ACTGCCC": 4903,
      "TCATTTC": 4904,
      "AGGCTAG": 4905,
      "adap": 4906,
      "GGAAG": 4907,
      "TTTAAGC": 4908,
      "ticallyĠ": 4909,
      "Ber": 4910,
      "ppedĠ": 4911,
      "ialsĠ": 4912,
      "TTCAAAC": 4913,
      "inĠM": 4914,
      "inĠtheirĠ": 4915,
      "turnĠ": 4916,
      "yardĠ": 4917,
      "TGTTCCC": 4918,
      "TTCGC": 4919,
      "AGCTGCC": 4920,
      "stlyĠ": 4921,
      "continuedĠtoĠ": 4922,
      "Chic": 4923,
      "ateg": 4924,
      "Dem": 4925,
      "AAAATGG": 4926,
      "Bal": 4927,
      "sonĠ'sĠ": 4928,
      "appointedĠ": 4929,
      "secur": 4930,
      "TACCG": 4931,
      "daughterĠ": 4932,
      "TCAAATG": 4933,
      "ATGTGTC": 4934,
      "friendĠ": 4935,
      "sometimesĠ": 4936,
      "tan": 4937,
      "ball": 4938,
      "chingĠ": 4939,
      "allĠofĠ": 4940,
      "chas": 4941,
      "profession": 4942,
      "eventsĠ": 4943,
      "musicalĠ": 4944,
      "TĠ": 4945,
      "rateĠ": 4946,
      "aĠ@-@Ġ": 4947,
      "GTGATCC": 4948,
      "orderĠtoĠ": 4949,
      "poraryĠ": 4950,
      "statesĠ": 4951,
      "TTGCCCC": 4952,
      "investig": 4953,
      "approxim": 4954,
      "settl": 4955,
      "ATTGTAA": 4956,
      "AAAACAAAAC": 4957,
      "wordĠ": 4958,
      "Cong": 4959,
      "ATCTATT": 4960,
      "flic": 4961,
      "discus": 4962,
      "edlyĠ": 4963,
      "ACCATGG": 4964,
      "kil": 4965,
      "ACAAATT": 4966,
      "territ": 4967,
      "ATGTAT": 4968,
      "aĠfewĠ": 4969,
      "ATTTTAAAA": 4970,
      "Du": 4971,
      "AGCAGTG": 4972,
      "thanĠtheĠ": 4973,
      "TGAAACCCCGTCTC": 4974,
      "reti": 4975,
      "TGGGGGG": 4976,
      "withĠanĠ": 4977,
      "exper": 4978,
      "ACAGCCC": 4979,
      "TGTTTAC": 4980,
      "TTTTTTTG": 4981,
      "latterĠ": 4982,
      "AGCCGGGC": 4983,
      "decidedĠtoĠ": 4984,
      "coverĠ": 4985,
      "rat": 4986,
      "princ": 4987,
      "uponĠ": 4988,
      "TGTGCG": 4989,
      "Bu": 4990,
      "stoneĠ": 4991,
      "inĠ198": 4992,
      "arrang": 4993,
      "ATTCTAA": 4994,
      "liz": 4995,
      "AGGTTGC": 4996,
      "AGCATGG": 4997,
      "oweverĠ,ĠtheĠ": 4998,
      "inĠitsĠ": 4999,
      "letĠ": 5000,
      "enceĠ,Ġ": 5001,
      "AAAGTAC": 5002,
      "staffĠ": 5003,
      ".ĠToĠ": 5004,
      "AGGTTGG": 5005,
      "TGTCTCC": 5006,
      "AGAATGG": 5007,
      "reveal": 5008,
      "calledĠtheĠ": 5009,
      "becameĠtheĠ": 5010,
      "TTGTTTG": 5011,
      "liter": 5012,
      "TTCAAGACCAGCC": 5013,
      "ATATATATATATATAT": 5014,
      "phot": 5015,
      "thatĠitĠ": 5016,
      "ACTAGC": 5017,
      "ForceĠ": 5018,
      "YouĠ": 5019,
      "antas": 5020,
      "RouteĠ": 5021,
      "Sovi": 5022,
      "ATCACAC": 5023,
      "entionĠ": 5024,
      "great": 5025,
      "ariesĠ": 5026,
      "Moun": 5027,
      "goalĠ": 5028,
      "TTTTGTATT": 5029,
      "TCCCACC": 5030,
      "AATTAAAA": 5031,
      "ATCTGTG": 5032,
      "ACCCACC": 5033,
      "TGCCTCAGCC": 5034,
      "Ham": 5035,
      "AGATAAC": 5036,
      ".ĠSomeĠ": 5037,
      "averageĠ": 5038,
      "edĠ.ĠTheĠ": 5039,
      "certainĠ": 5040,
      "AGGTGGC": 5041,
      "pastĠ": 5042,
      "iĠ@-@Ġ": 5043,
      "Mag": 5044,
      "StarĠ": 5045,
      "ACAGAAC": 5046,
      "after": 5047,
      "NavyĠ": 5048,
      "TAGTGC": 5049,
      "ix": 5050,
      "AAGTTTT": 5051,
      "mas": 5052,
      "TTGTCTC": 5053,
      "ATAATTTT": 5054,
      "ATGATCC": 5055,
      "TGGATTC": 5056,
      "erĠtoĠ": 5057,
      "Span": 5058,
      "isl": 5059,
      "ĠG": 5060,
      "lymp": 5061,
      "ATGAAAC": 5062,
      "ATATATAC": 5063,
      "condi": 5064,
      "appearĠ": 5065,
      "AATCTGCAAGTGG": 5066,
      "icĠ,Ġ": 5067,
      "IĠ'": 5068,
      "nearĠtheĠ": 5069,
      ".ĠUn": 5070,
      "futureĠ": 5071,
      "ACTTTAA": 5072,
      "finish": 5073,
      "viron": 5074,
      "TTATTGC": 5075,
      "eĠtoĠ": 5076,
      "interest": 5077,
      "fleetĠ": 5078,
      "AGAGGGG": 5079,
      "AGCAGAA": 5080,
      "sectionĠ": 5081,
      "becameĠaĠ": 5082,
      "TGGTTTC": 5083,
      "AAAAGAAG": 5084,
      "currentĠ": 5085,
      "TTCAGAA": 5086,
      "ingsĠ,Ġ": 5087,
      "ootĠ": 5088,
      "Atlan": 5089,
      "TTTGAGACCAGCC": 5090,
      "regularĠ": 5091,
      "TAGTTTC": 5092,
      "TCTTTAG": 5093,
      "ysĠ": 5094,
      "TGATTCC": 5095,
      "estiv": 5096,
      "TCCATT": 5097,
      "AGTATTC": 5098,
      "yĠtheĠ": 5099,
      "remainingĠ": 5100,
      "TTCGG": 5101,
      "TATAATG": 5102,
      "ACACTGC": 5103,
      "ĠE": 5104,
      "AGGTTTC": 5105,
      "ATGCCCC": 5106,
      "improv": 5107,
      "wal": 5108,
      "TGTGTGC": 5109,
      "Cro": 5110,
      "TAGTAC": 5111,
      "kin": 5112,
      "TATCTATC": 5113,
      "AGTTCTC": 5114,
      "oriesĠ": 5115,
      "basedĠ": 5116,
      "footballĠ": 5117,
      "TAATTTTTTGTATT": 5118,
      "avo": 5119,
      "Pat": 5120,
      "surr": 5121,
      "UniversityĠofĠ": 5122,
      "ftĠ)Ġ": 5123,
      "TTCAAGG": 5124,
      "edĠ,ĠandĠ": 5125,
      "wouldĠhaveĠ": 5126,
      "breakĠ": 5127,
      "TCACTGCAACCTCTGCC": 5128,
      "foodĠ": 5129,
      "ACCTCTC": 5130,
      "TGTAGTCCCAGC": 5131,
      "eĠinĠ": 5132,
      "AAGTATT": 5133,
      "ofĠL": 5134,
      "miĠ)Ġ": 5135,
      "TAGATC": 5136,
      "feetĠ(Ġ": 5137,
      "sem": 5138,
      "escap": 5139,
      "ÃŃ": 5140,
      "JapanĠ": 5141,
      "AAGAAGG": 5142,
      "writerĠ": 5143,
      "onĠtoĠ": 5144,
      "sterĠ": 5145,
      "dig": 5146,
      "small": 5147,
      "TGACCCC": 5148,
      "financ": 5149,
      "TATACAC": 5150,
      "inĠtheĠUnitedĠStatesĠ": 5151,
      "need": 5152,
      "occas": 5153,
      "TCCTCAC": 5154,
      "TGAGGGC": 5155,
      "TCCTGGC": 5156,
      "Ã¶": 5157,
      "movementĠ": 5158,
      "nearlyĠ": 5159,
      "dateĠ": 5160,
      "AACAATG": 5161,
      "lay": 5162,
      "TTCTTGG": 5163,
      "Smi": 5164,
      "CCCAGCC": 5165,
      "identĠ": 5166,
      "AATATGC": 5167,
      "AACAGAG": 5168,
      "unĠ": 5169,
      "TCCGTCTC": 5170,
      "AGAGCAAG": 5171,
      "desp": 5172,
      "takingĠ": 5173,
      "AGGGAGG": 5174,
      "TGATGGG": 5175,
      "itch": 5176,
      "AGGCTGGAGTGCAGTGG": 5177,
      "thatĠwasĠ": 5178,
      "AAAAAATAA": 5179,
      "Enter": 5180,
      "ACAAAAG": 5181,
      "4Ġ@.@Ġ": 5182,
      "addedĠ": 5183,
      "2ndĠ": 5184,
      "Olymp": 5185,
      "mur": 5186,
      "kenĠ": 5187,
      "rad": 5188,
      "TTTATGG": 5189,
      "ACCATCC": 5190,
      "AGATATC": 5191,
      "TGGTATT": 5192,
      "Counc": 5193,
      "TTTTATC": 5194,
      "spea": 5195,
      "Mich": 5196,
      "TGTAGCC": 5197,
      "ATTTTAG": 5198,
      "tionsĠ,Ġ": 5199,
      "3ĠâĢĵĠ": 5200,
      "ATTATTG": 5201,
      "AGAACCC": 5202,
      "level": 5203,
      "notĠbeĠ": 5204,
      "policeĠ": 5205,
      "listĠ": 5206,
      "AGGCAGC": 5207,
      "ACAAATG": 5208,
      "TCACTGCAAGC": 5209,
      "ACAGTGGC": 5210,
      "planĠ": 5211,
      "ationsĠ,Ġ": 5212,
      "estimatedĠ": 5213,
      "mad": 5214,
      "prog": 5215,
      "AGGAATG": 5216,
      "TTCAAGCG": 5217,
      "TTCGAGACCAGCC": 5218,
      "asĠ,Ġ": 5219,
      "CaliforniaĠ": 5220,
      "sportĠ": 5221,
      "theyĠareĠ": 5222,
      "conf": 5223,
      "sonsĠ": 5224,
      "TCAATT": 5225,
      "ativelyĠ": 5226,
      "ATTTGCC": 5227,
      "PaulĠ": 5228,
      "Off": 5229,
      "TAGAAAC": 5230,
      "aĠ.ĠĊ": 5231,
      "TTTTCTTC": 5232,
      "edĠfromĠtheĠ": 5233,
      "courtĠ": 5234,
      "turesĠ": 5235,
      "ratedĠ": 5236,
      "TGTGGGG": 5237,
      "aperĠ": 5238,
      "enj": 5239,
      "Tex": 5240,
      "costĠ": 5241,
      "TGCTTCC": 5242,
      "administ": 5243,
      "AGCCGAG": 5244,
      "TGAGAAG": 5245,
      ".ĠAnĠ": 5246,
      "runsĠ": 5247,
      "Ver": 5248,
      "Lou": 5249,
      "doesĠnotĠ": 5250,
      "probl": 5251,
      "MĠ": 5252,
      "AGTTTAC": 5253,
      "strictĠ": 5254,
      "largerĠ": 5255,
      "He": 5256,
      "ACATAT": 5257,
      "TGGGTGC": 5258,
      "edĠatĠtheĠ": 5259,
      "TTTGTTC": 5260,
      "ATTGTGCC": 5261,
      "TTATATC": 5262,
      "divisionĠ": 5263,
      "week": 5264,
      "tedĠinĠ": 5265,
      "2015Ġ": 5266,
      "othĠ": 5267,
      "TTTGGGC": 5268,
      "ATAATAC": 5269,
      "func": 5270,
      "GermanyĠ": 5271,
      "cleĠ": 5272,
      "knownĠasĠtheĠ": 5273,
      "TAAAGAA": 5274,
      "AAAGAGC": 5275,
      "AGTAAAA": 5276,
      "AGTGAGC": 5277,
      "ACATTTC": 5278,
      "ATGTTGG": 5279,
      "SanĠ": 5280,
      "childĠ": 5281,
      "TVĠ": 5282,
      "depic": 5283,
      "AGGAGCC": 5284,
      "TTGAAAC": 5285,
      "whenĠheĠ": 5286,
      "constructionĠ": 5287,
      "jectsĠ": 5288,
      "ACCTTCC": 5289,
      "TTGCCCAGGCTGG": 5290,
      "forwardĠ": 5291,
      "itĠ,Ġ": 5292,
      "eignĠ": 5293,
      "AAACCTC": 5294,
      "AGTGAAC": 5295,
      "AGGCGC": 5296,
      "viceĠ": 5297,
      "ATTGTTC": 5298,
      "AGAAAAGG": 5299,
      "burgĠ": 5300,
      "distri": 5301,
      "TAGGAAG": 5302,
      "antiĠ@-@Ġ": 5303,
      "returnedĠ": 5304,
      "ATAGAGC": 5305,
      "probablyĠ": 5306,
      "distribu": 5307,
      "TGAAATC": 5308,
      "TATCTGG": 5309,
      "rayĠ": 5310,
      "arĠ,Ġ": 5311,
      "runningĠ": 5312,
      "Recor": 5313,
      "AGATACC": 5314,
      "Ã¼": 5315,
      "tionsĠofĠ": 5316,
      "illboardĠ": 5317,
      ".ĠAfterĠtheĠ": 5318,
      "approximatelyĠ": 5319,
      "colon": 5320,
      "TCAAAAG": 5321,
      "bertĠ": 5322,
      "presidentĠ": 5323,
      "AGGTTTT": 5324,
      "essĠofĠ": 5325,
      "ordin": 5326,
      "conclud": 5327,
      "TGGGAGC": 5328,
      "effectsĠ": 5329,
      "Cal": 5330,
      "Sal": 5331,
      "TCTCTTC": 5332,
      "TATGTTG": 5333,
      "187": 5334,
      "themsel": 5335,
      "chall": 5336,
      "TAAAATC": 5337,
      "dersĠ": 5338,
      "meth": 5339,
      "ChampionshipĠ": 5340,
      "inĠ196": 5341,
      "ChineseĠ": 5342,
      "expectedĠ": 5343,
      "tionallyĠ": 5344,
      "300Ġ": 5345,
      "ATCTCTG": 5346,
      "TCTCACTCTG": 5347,
      "mostlyĠ": 5348,
      "TAAATTC": 5349,
      "AAACAAC": 5350,
      "ATTGCCC": 5351,
      "ean": 5352,
      "AGGTATT": 5353,
      "AATTTATT": 5354,
      "VirginiaĠ": 5355,
      "whetherĠ": 5356,
      "caseĠ": 5357,
      "realĠ": 5358,
      "now": 5359,
      "AGATAAAA": 5360,
      ".ĠTheĠfirstĠ": 5361,
      "ped": 5362,
      "TTATTGG": 5363,
      "BlackĠ": 5364,
      "IIIĠ": 5365,
      "AAGAAGC": 5366,
      "edĠherĠ": 5367,
      "TGGATAA": 5368,
      "ATGCACC": 5369,
      "immediatelyĠ": 5370,
      "umentĠ": 5371,
      "GCAGC": 5372,
      "eningĠ": 5373,
      "doneĠ": 5374,
      "AGAAACC": 5375,
      "WhiteĠ": 5376,
      "every": 5377,
      "magazineĠ": 5378,
      "TATAA": 5379,
      "TTTTCTTTT": 5380,
      "asternĠ": 5381,
      "orĠtoĠ": 5382,
      "AGTGGCC": 5383,
      ",ĠasĠ": 5384,
      "firm": 5385,
      "TTTAGGG": 5386,
      ".ĠOnĠtheĠ": 5387,
      "entyĠ": 5388,
      "extr": 5389,
      "personalĠ": 5390,
      "femaleĠ": 5391,
      "ailĠ": 5392,
      "TGTGGGC": 5393,
      "ChurchĠ": 5394,
      "structureĠ": 5395,
      "completeĠ": 5396,
      "emerg": 5397,
      "2004Ġ": 5398,
      "NYĠ": 5399,
      "goldĠ": 5400,
      "treat": 5401,
      "TTATAAC": 5402,
      "collec": 5403,
      "HighĠ": 5404,
      "surfaceĠ": 5405,
      "fol": 5406,
      "countri": 5407,
      "provideĠ": 5408,
      "TCCTGAA": 5409,
      "IĠ@-@Ġ": 5410,
      "PartyĠ": 5411,
      "GCGCC": 5412,
      "TTTTGTTTT": 5413,
      "TATAATAA": 5414,
      "Ã©Ġ": 5415,
      "TCTTTAC": 5416,
      "TATGTAA": 5417,
      "ym": 5418,
      "AGATAAG": 5419,
      "TGGAGGG": 5420,
      "temper": 5421,
      "mach": 5422,
      "TTGTGTG": 5423,
      "norm": 5424,
      "novelĠ": 5425,
      "HouseĠ": 5426,
      "AGTGCCC": 5427,
      "chor": 5428,
      "AGCCGAGATC": 5429,
      "ACCCAGCC": 5430,
      "leaveĠ": 5431,
      "ĠDur": 5432,
      "reallyĠ": 5433,
      "thusĠ": 5434,
      "askedĠ": 5435,
      "ATATAAC": 5436,
      "communityĠ": 5437,
      "commercialĠ": 5438,
      "Ap": 5439,
      "RichardĠ": 5440,
      "fall": 5441,
      "yr": 5442,
      "ATCTTGG": 5443,
      "TTTCTTCC": 5444,
      "TTAAATT": 5445,
      "chartĠ": 5446,
      "anĠun": 5447,
      "AATGAAC": 5448,
      "ATATATATT": 5449,
      "longerĠ": 5450,
      "AGGCAGG": 5451,
      "ACCCCCC": 5452,
      "TCTGGGC": 5453,
      "TTTTCCCC": 5454,
      "ACTTCCC": 5455,
      ".ĠOtherĠ": 5456,
      "1ĠâĢĵĠ": 5457,
      "weap": 5458,
      "ATGATTC": 5459,
      "eu": 5460,
      "TATATGG": 5461,
      "obĠ": 5462,
      "higherĠ": 5463,
      "Des": 5464,
      "alesĠ": 5465,
      "sideĠtheĠ": 5466,
      "boxĠ": 5467,
      "TGGAGAC": 5468,
      "ACCACGCC": 5469,
      "monthĠ": 5470,
      "ATTTGGC": 5471,
      "taĠ": 5472,
      "road": 5473,
      "TGGTGGG": 5474,
      "cutĠ": 5475,
      "TAAAAGC": 5476,
      "instr": 5477,
      ".ĠHeĠalsoĠ": 5478,
      "continuedĠ": 5479,
      ".ĠCon": 5480,
      "AAGGAAC": 5481,
      "partsĠ": 5482,
      "ATTGCACTCCAGCC": 5483,
      "livingĠ": 5484,
      "Dis": 5485,
      "TATATCC": 5486,
      "TCACAGC": 5487,
      "offĠtheĠ": 5488,
      "Victor": 5489,
      "TCACTGCAGCC": 5490,
      "handĠ": 5491,
      "ACTTAG": 5492,
      "AGATCTC": 5493,
      "AGTCCCC": 5494,
      "TCATTCC": 5495,
      "bran": 5496,
      "host": 5497,
      "venueĠ": 5498,
      "TTCTGTC": 5499,
      "ATAATTG": 5500,
      "Alli": 5501,
      "materialĠ": 5502,
      "Lu": 5503,
      "TTTCTTTTG": 5504,
      "ATTTTTATT": 5505,
      "explain": 5506,
      "GrandĠ": 5507,
      "AAAGAGG": 5508,
      "ACCGG": 5509,
      "ATAAATC": 5510,
      "responseĠ": 5511,
      "canc": 5512,
      "AAAGGAG": 5513,
      "tainmentĠ": 5514,
      "TTTCTCTC": 5515,
      "writtenĠbyĠ": 5516,
      "armĠ": 5517,
      "gameĠ'sĠ": 5518,
      "cred": 5519,
      "TCCCAAAGTGCTGGGATTACAGGCGTGAGCC": 5520,
      "TTATCTC": 5521,
      "imm": 5522,
      "Fi": 5523,
      "ATTCTTTT": 5524,
      "power": 5525,
      "TCTGGGG": 5526,
      "researchĠ": 5527,
      "TTCTGAA": 5528,
      "injur": 5529,
      "dyĠ": 5530,
      "AGCTTTT": 5531,
      "Gi": 5532,
      "jectedĠ": 5533,
      "TCCAAAA": 5534,
      "GGGTGG": 5535,
      "ACTGCACTCC": 5536,
      "EdwardĠ": 5537,
      "AGGCAAG": 5538,
      "concep": 5539,
      "legalĠ": 5540,
      "maĠ": 5541,
      "TGATTGG": 5542,
      "ton": 5543,
      "ATTATAC": 5544,
      "Ir": 5545,
      "AGAGAGG": 5546,
      "AAAGAGAA": 5547,
      "suchĠasĠtheĠ": 5548,
      "approach": 5549,
      "subsequentlyĠ": 5550,
      "SovietĠ": 5551,
      "bow": 5552,
      "esĠ\"Ġ": 5553,
      "CanadianĠ": 5554,
      "Tor": 5555,
      "clearĠ": 5556,
      "whoĠwasĠ": 5557,
      "AAACACTCTTTTTGTAG": 5558,
      "mos": 5559,
      "TTATGCC": 5560,
      "TAGCG": 5561,
      "udeĠ": 5562,
      "publishedĠ": 5563,
      "Ca": 5564,
      "notherĠ": 5565,
      "alwaysĠ": 5566,
      "ATTCATC": 5567,
      "AATAAGC": 5568,
      "overallĠ": 5569,
      "contractĠ": 5570,
      "Tra": 5571,
      "TCTGTGC": 5572,
      "AAAACAAAA": 5573,
      "Florid": 5574,
      "processĠ": 5575,
      "Port": 5576,
      "villeĠ": 5577,
      "onĠSeptemberĠ": 5578,
      "electedĠ": 5579,
      "TGGCTGC": 5580,
      "despiteĠ": 5581,
      "Ã³": 5582,
      "sun": 5583,
      "edĠtoĠaĠ": 5584,
      "univers": 5585,
      "ACAGTGC": 5586,
      "Im": 5587,
      "ATTAAAC": 5588,
      "TTCCTGC": 5589,
      "TTGCTGC": 5590,
      "TTTAAAAAA": 5591,
      "AGCTTTC": 5592,
      "energ": 5593,
      "ATACAAAA": 5594,
      "AATTTAG": 5595,
      "ateĠ,Ġ": 5596,
      "seyĠ": 5597,
      "organis": 5598,
      ".ĠDuringĠ": 5599,
      "TCĊ": 5600,
      "ehic": 5601,
      "AGCAGGG": 5602,
      "top": 5603,
      "asp": 5604,
      "summerĠ": 5605,
      "Grou": 5606,
      "ChristianĠ": 5607,
      "sĠ\"Ġ": 5608,
      "TAAATGC": 5609,
      "atoryĠ": 5610,
      "ographyĠ": 5611,
      "TCAGGCTGG": 5612,
      "tu": 5613,
      "emo": 5614,
      "dayĠ,Ġ": 5615,
      "copiesĠ": 5616,
      "Emp": 5617,
      "AGATTGC": 5618,
      "ACCATGC": 5619,
      "prison": 5620,
      "amongĠtheĠ": 5621,
      "TATATATG": 5622,
      "Brig": 5623,
      "AGAATAG": 5624,
      ".ĠOn": 5625,
      "TCTGGCC": 5626,
      "ull": 5627,
      "SpanishĠ": 5628,
      "ATGGAAG": 5629,
      "parti": 5630,
      "2Ġ@,@Ġ": 5631,
      "RomanĠ": 5632,
      "AGTTTAG": 5633,
      "adop": 5634,
      "icoĠ": 5635,
      "thatĠtheyĠ": 5636,
      "ionalĠ": 5637,
      "RedĠ": 5638,
      "'sĠfirstĠ": 5639,
      "ATTCTAC": 5640,
      "abil": 5641,
      "ultim": 5642,
      ".Ġ\"ĠH": 5643,
      "wit": 5644,
      "ATATCCC": 5645,
      "flightĠ": 5646,
      "osĠAngel": 5647,
      "advanc": 5648,
      "dueĠtoĠtheĠ": 5649,
      "TCCCAGCACTTTGGG": 5650,
      "pun": 5651,
      "ATGTATG": 5652,
      "err": 5653,
      "orĠtheĠ": 5654,
      "studentsĠ": 5655,
      "TGCAAAA": 5656,
      "adiumĠ": 5657,
      "TGAAACCCCATCTC": 5658,
      "PacificĠ": 5659,
      "ATTTCAG": 5660,
      "QueenĠ": 5661,
      "naturalĠ": 5662,
      "yetĠ": 5663,
      "TAGCTGGGATTAC": 5664,
      "south": 5665,
      "deb": 5666,
      "AGCCTGG": 5667,
      "createĠ": 5668,
      "thyĠ": 5669,
      "TTTGTGG": 5670,
      "classi": 5671,
      "reviewĠ": 5672,
      "scienti": 5673,
      "ATAGGCC": 5674,
      "GGGCGG": 5675,
      "AAGACAC": 5676,
      "AAAGATC": 5677,
      "TATCCCC": 5678,
      ".ĠInĠadditionĠ": 5679,
      "ACTTTGG": 5680,
      "criticsĠ": 5681,
      "linĠ": 5682,
      "TTTTTGG": 5683,
      "oundingĠ": 5684,
      "TCAGGCC": 5685,
      "TAAATAC": 5686,
      "37Ġ": 5687,
      "haveĠaĠ": 5688,
      "maintain": 5689,
      "NAĠ": 5690,
      "Sing": 5691,
      "inĠ197": 5692,
      "ATGTGGC": 5693,
      "eĠ,Ġ\"Ġ": 5694,
      "TTTTAAC": 5695,
      "finishedĠ": 5696,
      "ban": 5697,
      "altern": 5698,
      "ChicagoĠ": 5699,
      "AtlanticĠ": 5700,
      "Leg": 5701,
      "AGAATTC": 5702,
      "TCTTGGC": 5703,
      "ATCGG": 5704,
      "ushĠ": 5705,
      "Georg": 5706,
      "eĠ\"Ġ": 5707,
      "Oper": 5708,
      "TCCCAGGTTC": 5709,
      "rickĠ": 5710,
      "get": 5711,
      ".ĠFollow": 5712,
      "athĠ": 5713,
      "AATAACC": 5714,
      "broadcastĠ": 5715,
      "TTCCTGG": 5716,
      "himĠtoĠ": 5717,
      "ACCGTG": 5718,
      "conven": 5719,
      "celeb": 5720,
      "evidenceĠ": 5721,
      "ucle": 5722,
      "ATGGCG": 5723,
      "TTAGCCAGGATGG": 5724,
      "AGATTTG": 5725,
      "linesĠ": 5726,
      "Tran": 5727,
      "SecondĠ": 5728,
      "cĠ": 5729,
      "ailyĠ": 5730,
      "TTGAACCCGGG": 5731,
      "radioĠ": 5732,
      "TCGTG": 5733,
      "inch": 5734,
      "Maj": 5735,
      "RussianĠ": 5736,
      "gotĠ": 5737,
      "Ġ=Ġ=Ġ=ĠĊ": 5738,
      "fifthĠ": 5739,
      "ACTTTCC": 5740,
      ".ĠAsĠaĠ": 5741,
      "businessĠ": 5742,
      "DayĠ": 5743,
      "AAGATAA": 5744,
      "accordingĠtoĠ": 5745,
      "defeatedĠ": 5746,
      "lov": 5747,
      "necess": 5748,
      "TGAAACAC": 5749,
      "Alex": 5750,
      "selfĠ@-@Ġ": 5751,
      "AAGGCCC": 5752,
      "strong": 5753,
      "GCTTTC": 5754,
      "ientĠ": 5755,
      "environ": 5756,
      "selectedĠ": 5757,
      "wasĠre": 5758,
      ".ĠHerĠ": 5759,
      "shownĠ": 5760,
      "CompanyĠ": 5761,
      "GTCC": 5762,
      "senĠ": 5763,
      "respectivelyĠ": 5764,
      "privateĠ": 5765,
      "TTCTGGC": 5766,
      "frontĠ": 5767,
      "TCATTGC": 5768,
      "mediaĠ": 5769,
      "womanĠ": 5770,
      "Jew": 5771,
      "AGAATAC": 5772,
      "ATTCTTG": 5773,
      "aintĠ": 5774,
      "initialĠ": 5775,
      "Gam": 5776,
      "habit": 5777,
      "ster": 5778,
      "German": 5779,
      "distinc": 5780,
      "TTTTATG": 5781,
      "eĠofĠaĠ": 5782,
      "pressĠ": 5783,
      "lackĠofĠ": 5784,
      "lav": 5785,
      "professionalĠ": 5786,
      "onĠandĠ": 5787,
      "ump": 5788,
      "butĠtheĠ": 5789,
      "AGCAAAC": 5790,
      "isterĠ": 5791,
      "Ot": 5792,
      "ondsĠ": 5793,
      "ansĠ,Ġ": 5794,
      "regard": 5795,
      "ward": 5796,
      "AAAGTAG": 5797,
      "citi": 5798,
      "TimesĠ": 5799,
      "actingĠ": 5800,
      "producedĠ": 5801,
      "thereĠwereĠ": 5802,
      "tyĠ,Ġ": 5803,
      "UnitedĠKingdomĠ": 5804,
      "onĠ'sĠ": 5805,
      "Tre": 5806,
      "AACTTCC": 5807,
      "ACCTGGG": 5808,
      "saidĠthatĠ": 5809,
      "BayĠ": 5810,
      "AAAAAAATT": 5811,
      "adul": 5812,
      "32Ġ": 5813,
      "thes": 5814,
      "TGGAGAG": 5815,
      "AGCCTGC": 5816,
      "anĠinter": 5817,
      "TAAAACC": 5818,
      "ner": 5819,
      "ACCACTGCACTCCAGCC": 5820,
      "Pi": 5821,
      "vehic": 5822,
      "seas": 5823,
      "All": 5824,
      "AGCAGGC": 5825,
      "ATCTCCC": 5826,
      "hardĠ": 5827,
      "saf": 5828,
      "dru": 5829,
      "theat": 5830,
      "TAATAT": 5831,
      "TTTCTAG": 5832,
      "weightĠ": 5833,
      "atesĠ,Ġ": 5834,
      "ACATTGC": 5835,
      "AATGAAG": 5836,
      "wasĠtheĠfirstĠ": 5837,
      "sound": 5838,
      "ATTTACC": 5839,
      "TTCTTGC": 5840,
      "conver": 5841,
      "rab": 5842,
      "ATTTGAC": 5843,
      "AAGGGGC": 5844,
      "termin": 5845,
      "associatedĠ": 5846,
      "ofĠH": 5847,
      "unityĠ": 5848,
      "favor": 5849,
      "TTATGGC": 5850,
      "actionsĠ": 5851,
      "threeĠ@-@Ġ": 5852,
      "premi": 5853,
      "engag": 5854,
      "ATTGTGG": 5855,
      "spaceĠ": 5856,
      "aughtĠ": 5857,
      "GAGG": 5858,
      "prev": 5859,
      "Mill": 5860,
      "TGCCTGCC": 5861,
      "ersĠ'Ġ": 5862,
      ".ĠTwoĠ": 5863,
      "wallĠ": 5864,
      "TAAGAAC": 5865,
      "iganĠ": 5866,
      "tonsĠ": 5867,
      "DV": 5868,
      "fellĠ": 5869,
      "ineĠ,Ġ": 5870,
      "erĠ@-@Ġ": 5871,
      "TGTTTATT": 5872,
      "bodi": 5873,
      "AGACTGC": 5874,
      ".ĠSheĠwasĠ": 5875,
      "ld": 5876,
      "TGATCTC": 5877,
      "TCCACCC": 5878,
      "ator": 5879,
      "archit": 5880,
      "GAAG": 5881,
      "goingĠ": 5882,
      "ATGATGG": 5883,
      "TTTCATC": 5884,
      "AGCCGC": 5885,
      ".ĠAn": 5886,
      "wantedĠtoĠ": 5887,
      "ItĠ": 5888,
      "edĠoutĠ": 5889,
      "arg": 5890,
      "TGTAACC": 5891,
      "mel": 5892,
      "ofĠwhichĠ": 5893,
      "sĠ'Ġ": 5894,
      "TGTTGCC": 5895,
      "AAATAGC": 5896,
      "numerousĠ": 5897,
      "sinceĠtheĠ": 5898,
      "TTCAGTG": 5899,
      "plansĠ": 5900,
      "StationĠ": 5901,
      "TAAGAAG": 5902,
      "36Ġ": 5903,
      "sim": 5904,
      "ersĠ(Ġ": 5905,
      "ACAGAAAA": 5906,
      "mĠ,Ġ": 5907,
      "ATAATAG": 5908,
      "landĠ,Ġ": 5909,
      "factĠ": 5910,
      "clim": 5911,
      "ga": 5912,
      "TACTAAAA": 5913,
      "developedĠ": 5914,
      "directlyĠ": 5915,
      "AGCTGGC": 5916,
      "actorĠ": 5917,
      "anceĠofĠ": 5918,
      ":ĠTheĠ": 5919,
      "GTAG": 5920,
      "keep": 5921,
      "ual": 5922,
      "TTGGGGC": 5923,
      "retĠ": 5924,
      "Studi": 5925,
      "mom": 5926,
      "ATAGAAAA": 5927,
      "hipĠ": 5928,
      "ATGAACC": 5929,
      "ATCAGAG": 5930,
      "promis": 5931,
      "TTCATCC": 5932,
      "4ĠâĢĵĠ": 5933,
      "derĠofĠtheĠ": 5934,
      "backĠtoĠ": 5935,
      ".ĠInĠ200": 5936,
      "riverĠ": 5937,
      "TATAATC": 5938,
      "CouncilĠ": 5939,
      "ACCAGGC": 5940,
      "desig": 5941,
      "MartinĠ": 5942,
      "TATAAGG": 5943,
      "TGTCTGC": 5944,
      "BillboardĠ": 5945,
      "crow": 5946,
      "ry": 5947,
      "imag": 5948,
      ".ĠItsĠ": 5949,
      "keepĠ": 5950,
      "-Ġ": 5951,
      "tingĠtheĠ": 5952,
      "enantĠ": 5953,
      "limitedĠ": 5954,
      "TGGGTAA": 5955,
      "sched": 5956,
      "TGAAGGG": 5957,
      "primaryĠ": 5958,
      "largelyĠ": 5959,
      "TCCAGGC": 5960,
      "Del": 5961,
      "bilityĠ": 5962,
      "BritainĠ": 5963,
      "GodĠ": 5964,
      "testĠ": 5965,
      "TCTATTC": 5966,
      "osaur": 5967,
      "upperĠ": 5968,
      "phas": 5969,
      "approv": 5970,
      "zz": 5971,
      "ress": 5972,
      "finallyĠ": 5973,
      "inten": 5974,
      "sideĠofĠtheĠ": 5975,
      "influenceĠ": 5976,
      "AGACCTC": 5977,
      "influenc": 5978,
      "AGCTCCC": 5979,
      "tionĠandĠ": 5980,
      "albumĠ,Ġ": 5981,
      "mostĠofĠtheĠ": 5982,
      "rout": 5983,
      "ATCAGAA": 5984,
      "TTCTTTTC": 5985,
      "wasĠ\"Ġ": 5986,
      "ATTGTAG": 5987,
      "AAACTAC": 5988,
      "TGGCTCACACC": 5989,
      "experienceĠ": 5990,
      "TTAATAC": 5991,
      "esĠfromĠ": 5992,
      "ATGAAGG": 5993,
      "conflic": 5994,
      "ACTGTAA": 5995,
      "ATGTTTG": 5996,
      "claimĠ": 5997,
      "ark": 5998,
      "tedĠaĠ": 5999,
      ")Ġ,ĠtheĠ": 6000,
      "TGATGCC": 6001,
      "TATTTTTC": 6002,
      "CentralĠ": 6003,
      "memberĠofĠtheĠ": 6004,
      "Gra": 6005,
      "fightĠ": 6006,
      "nation": 6007,
      "TTCAACC": 6008,
      "AGGGAAC": 6009,
      "AAACCAC": 6010,
      "TGATATG": 6011,
      "aband": 6012,
      "Eg": 6013,
      "verseĠ": 6014,
      "ightsĠ": 6015,
      "criticalĠ": 6016,
      "produceĠ": 6017,
      "ratingĠ": 6018,
      "edic": 6019,
      "membersĠofĠtheĠ": 6020,
      "spl": 6021,
      "atingĠtheĠ": 6022,
      "asc": 6023,
      "TGCCTCC": 6024,
      "establishedĠ": 6025,
      "oti": 6026,
      "esĠforĠ": 6027,
      "windĠ": 6028,
      "winningĠ": 6029,
      "GameĠ": 6030,
      "TCACCCC": 6031,
      "Wat": 6032,
      "TGATGGC": 6033,
      "TGTTGGG": 6034,
      "famil": 6035,
      "totalĠofĠ": 6036,
      "Ev": 6037,
      "ManĠ": 6038,
      "icaĠ": 6039,
      "purpos": 6040,
      "ATTTTTTC": 6041,
      "bot": 6042,
      "eptĠ": 6043,
      ".ĠFromĠ": 6044,
      "TGTTGGC": 6045,
      "Phil": 6046,
      "eforeĠ": 6047,
      "ATGTATC": 6048,
      "TGCCTGC": 6049,
      "AATTGCC": 6050,
      "know": 6051,
      "Cath": 6052,
      "TATTCCC": 6053,
      "comingĠ": 6054,
      "TCTTTGG": 6055,
      "siz": 6056,
      "TGGCTAA": 6057,
      "AGTGAAG": 6058,
      "Cast": 6059,
      "TTGGGCC": 6060,
      "TTACTGC": 6061,
      "sĠ,ĠincludingĠ": 6062,
      "Ke": 6063,
      "TGGAGCC": 6064,
      "Sci": 6065,
      "mmĠ)Ġ": 6066,
      "ATACCTC": 6067,
      "agon": 6068,
      "AGTAACC": 6069,
      "Carol": 6070,
      "HistoryĠ": 6071,
      "sayĠ": 6072,
      "TTAAATC": 6073,
      "oneĠ@-@Ġ": 6074,
      "fiel": 6075,
      "ket": 6076,
      "syl": 6077,
      "somethingĠ": 6078,
      "TGTAAGG": 6079,
      "TTTAGTAGAGACGGGG": 6080,
      "ofĠitsĠ": 6081,
      "AAACATC": 6082,
      "ACACAC": 6083,
      "nelĠ": 6084,
      "AAAAACC": 6085,
      "55Ġ": 6086,
      "Soci": 6087,
      "TACACC": 6088,
      "oodsĠ": 6089,
      "TTCCAAG": 6090,
      "PeterĠ": 6091,
      "memor": 6092,
      "AGGATGC": 6093,
      "ATATAAG": 6094,
      "edingĠ": 6095,
      "TTTCAAC": 6096,
      "38Ġ": 6097,
      "ingu": 6098,
      "causedĠ": 6099,
      "TTTACCC": 6100,
      "AAAGTTG": 6101,
      "sĠonĠ": 6102,
      "AGCTCTG": 6103,
      "TAAATATT": 6104,
      "ACAATGG": 6105,
      "Inf": 6106,
      "Mex": 6107,
      "2000Ġ": 6108,
      "TGCACCC": 6109,
      "itĠ'sĠ": 6110,
      "transfer": 6111,
      "AGCTATT": 6112,
      "parkĠ": 6113,
      "AGGTATG": 6114,
      "andĠB": 6115,
      "rankedĠ": 6116,
      "voiceĠ": 6117,
      "33Ġ": 6118,
      "elementsĠ": 6119,
      "followingĠtheĠ": 6120,
      "wall": 6121,
      "TCCATTC": 6122,
      "rdĠ": 6123,
      "AGAGGAG": 6124,
      "thĠ@-@Ġ": 6125,
      "ItalianĠ": 6126,
      "eut": 6127,
      "scoreĠ": 6128,
      "BC": 6129,
      "CanadaĠ": 6130,
      "cruis": 6131,
      "point": 6132,
      "contem": 6133,
      "featureĠ": 6134,
      "cross": 6135,
      "buryĠ": 6136,
      "ATTAGAA": 6137,
      "confirm": 6138,
      "lieĠ": 6139,
      "ACTGTGC": 6140,
      "ibleĠ": 6141,
      "AGATCAC": 6142,
      "TCCATCC": 6143,
      "uck": 6144,
      "gradu": 6145,
      "AAAGTTC": 6146,
      "scoredĠ": 6147,
      "ATGTCTC": 6148,
      "TGTGTAC": 6149,
      "everalĠ": 6150,
      "AATGGAATGG": 6151,
      "ationĠwasĠ": 6152,
      "AGAAGCATTC": 6153,
      "Kar": 6154,
      "cli": 6155,
      "ãĥ": 6156,
      "operationsĠ": 6157,
      "artistĠ": 6158,
      "traditionalĠ": 6159,
      "Mer": 6160,
      "AGCTCTC": 6161,
      "syst": 6162,
      "aĠS": 6163,
      "ACTGTGG": 6164,
      "eĠofĠhisĠ": 6165,
      "ACTTCTC": 6166,
      "ATAATTC": 6167,
      "TCAAGTGATCC": 6168,
      "mentalĠ": 6169,
      "sessionĠ": 6170,
      "thir": 6171,
      "CCCTGC": 6172,
      "TTCACGCC": 6173,
      ".ĠDespiteĠ": 6174,
      "depressionĠ": 6175,
      "ATTTAGG": 6176,
      "filmsĠ": 6177,
      "TGTTTAG": 6178,
      "TGTTTTCC": 6179,
      "erĠwasĠ": 6180,
      "2010Ġ,Ġ": 6181,
      "EuropeĠ": 6182,
      "anderĠ": 6183,
      "anoĠ": 6184,
      "TTTGTAC": 6185,
      "promin": 6186,
      "individualĠ": 6187,
      "itteeĠ": 6188,
      "numb": 6189,
      "determin": 6190,
      "Mur": 6191,
      "ATGTGAC": 6192,
      "ATTTAGC": 6193,
      "directĠ": 6194,
      "OneĠ": 6195,
      "TACTCGGGAGGCTGAGGCAGGAGAA": 6196,
      "toĠmakeĠ": 6197,
      "AGAGTGC": 6198,
      "'sĠ\"Ġ": 6199,
      "ATCTCCTGACCTC": 6200,
      "TCCAGGG": 6201,
      "TTTTTCTC": 6202,
      "oneĠ,Ġ": 6203,
      "wa": 6204,
      "TGTCTTC": 6205,
      "GTAA": 6206,
      "day": 6207,
      "ationĠforĠ": 6208,
      "ATGAATG": 6209,
      "plotĠ": 6210,
      "forĠtheĠfirstĠ": 6211,
      "ellĠ,Ġ": 6212,
      "hourĠ": 6213,
      "AGATCCC": 6214,
      "tru": 6215,
      "AATTAAC": 6216,
      "detail": 6217,
      "LordĠ": 6218,
      "attend": 6219,
      "preĠ@-@Ġ": 6220,
      "enedĠ": 6221,
      "ATATTTTG": 6222,
      "MarkĠ": 6223,
      "HighwayĠ": 6224,
      "AAGAGTG": 6225,
      "ATAGATAG": 6226,
      "uckĠ": 6227,
      "AATGGCC": 6228,
      "languageĠ": 6229,
      "yardsĠ": 6230,
      "Stor": 6231,
      "groupsĠ": 6232,
      "Rh": 6233,
      "AGGAGTG": 6234,
      "Fri": 6235,
      "ofĠTheĠ": 6236,
      "Arch": 6237,
      "Cros": 6238,
      "ATGTGAA": 6239,
      "Democ": 6240,
      "wind": 6241,
      "thinkĠ": 6242,
      "usesĠ": 6243,
      "ATTGTTG": 6244,
      "AwardsĠ": 6245,
      "ATCAGTG": 6246,
      "Gar": 6247,
      "sĠforĠ": 6248,
      "TGGACAC": 6249,
      "TATGGTG": 6250,
      "ashi": 6251,
      "adyĠ": 6252,
      "standĠ": 6253,
      "inoĠ": 6254,
      "AGAATTG": 6255,
      "TTATAGC": 6256,
      "AGAAAACC": 6257,
      "standardĠ": 6258,
      "AGGTCTC": 6259,
      "TATTTAG": 6260,
      "edit": 6261,
      "ATTCTAG": 6262,
      "studyĠ": 6263,
      "AAGTCAC": 6264,
      "yearsĠ,Ġ": 6265,
      "TTTTTTCC": 6266,
      "AGGCCAAGG": 6267,
      "neigh": 6268,
      "shĠ": 6269,
      "TTTGAAC": 6270,
      "bal": 6271,
      "wellĠ@-@Ġ": 6272,
      "TTTCTGG": 6273,
      "Cri": 6274,
      "newsp": 6275,
      "TCTTGAACTCC": 6276,
      "pressureĠ": 6277,
      "ACATGGC": 6278,
      "ofĠD": 6279,
      "ofĠ\"Ġ": 6280,
      "explo": 6281,
      "blyĠ": 6282,
      "AAGGAAAA": 6283,
      "ATGGCCC": 6284,
      "recep": 6285,
      "AAAGTGG": 6286,
      "ATTATCC": 6287,
      "marketĠ": 6288,
      "TATTTGG": 6289,
      "ATGGTAG": 6290,
      "minorĠ": 6291,
      "30": 6292,
      "edĠasĠtheĠ": 6293,
      "ACCACACCC": 6294,
      "On": 6295,
      "AGGAACC": 6296,
      "TTGGTTCC": 6297,
      "TGAATTC": 6298,
      "stitutionĠ": 6299,
      "doubleĠ": 6300,
      "mid": 6301,
      "TCTGTTG": 6302,
      "ACTGTAC": 6303,
      "commission": 6304,
      "journ": 6305,
      "qual": 6306,
      "Pen": 6307,
      "Zeal": 6308,
      "AGGCACC": 6309,
      "TTATTTTATT": 6310,
      "Stev": 6311,
      "deliver": 6312,
      "olicĠ": 6313,
      "poorĠ": 6314,
      "belowĠ": 6315,
      "AAGAGAC": 6316,
      "2003Ġ": 6317,
      "CollegeĠ": 6318,
      "middleĠ": 6319,
      "ATGATTG": 6320,
      "AGAGAGAA": 6321,
      "Mis": 6322,
      "expan": 6323,
      "AAGGGCC": 6324,
      "experienc": 6325,
      "ATGATAA": 6326,
      "3rdĠ": 6327,
      "FAĠ": 6328,
      "TTGAACCTGGG": 6329,
      "kilomet": 6330,
      "din": 6331,
      "hoodĠ": 6332,
      "ofĠT": 6333,
      "unableĠtoĠ": 6334,
      "valu": 6335,
      "troopsĠ": 6336,
      "ACTTTTG": 6337,
      "AATAAGG": 6338,
      "TTCGTTGGAAACGGG": 6339,
      "relatedĠ": 6340,
      "wasĠanĠ": 6341,
      "asĠitĠ": 6342,
      "echan": 6343,
      "nearbyĠ": 6344,
      "depar": 6345,
      "Bas": 6346,
      ",ĠinĠ": 6347,
      "TGAGATGG": 6348,
      "TGAGGGG": 6349,
      "JohnsonĠ": 6350,
      "web": 6351,
      "ACATATG": 6352,
      "TAAGTAA": 6353,
      "AAATATAA": 6354,
      "wifeĠ": 6355,
      "purchas": 6356,
      "ATCCATCC": 6357,
      "lookĠ": 6358,
      "TAAGAAAA": 6359,
      "ACTCTTG": 6360,
      "TTTAGGC": 6361,
      "install": 6362,
      "AGAAAAAAAA": 6363,
      "ACCTATG": 6364,
      "refl": 6365,
      "andĠL": 6366,
      "fightingĠ": 6367,
      "thĠcentur": 6368,
      "Clar": 6369,
      "TCATTTT": 6370,
      "AGGTGAC": 6371,
      "etyĠofĠ": 6372,
      "ACTCTGC": 6373,
      "AATAGCC": 6374,
      "TGGGAAC": 6375,
      "knowĠ": 6376,
      "TTTCACCATGTTGGCCAGGCTGG": 6377,
      "informationĠ": 6378,
      "daĠ": 6379,
      "NewĠZeal": 6380,
      "group": 6381,
      "bour": 6382,
      "TCAGGGC": 6383,
      "6Ġ@.@Ġ": 6384,
      "TCCAGAG": 6385,
      "TATTTTAA": 6386,
      "ATGGATGG": 6387,
      "ersĠofĠtheĠ": 6388,
      "enaĠ": 6389,
      "sail": 6390,
      "AGTTTATT": 6391,
      "ATTGAAC": 6392,
      "AATGTTG": 6393,
      "accompan": 6394,
      "positionsĠ": 6395,
      "willĠbeĠ": 6396,
      "iĠ'sĠ": 6397,
      "highlyĠ": 6398,
      "AAGTTTC": 6399,
      "AATTTGG": 6400,
      "TCATCTC": 6401,
      "Pan": 6402,
      "incorpor": 6403,
      "TACTTTC": 6404,
      "TCACTTG": 6405,
      "traff": 6406,
      "nucle": 6407,
      "threat": 6408,
      "upĠtheĠ": 6409,
      "\"Ġ,Ġ\"Ġ": 6410,
      "baseĠ": 6411,
      "increasedĠ": 6412,
      "castleĠ": 6413,
      "fru": 6414,
      "TTTGTGC": 6415,
      "TCCTGGGC": 6416,
      "kĠofĠ": 6417,
      "ewayĠ": 6418,
      "intell": 6419,
      "buildĠ": 6420,
      "AGGATAA": 6421,
      "TTCAGAG": 6422,
      "thatĠsheĠ": 6423,
      "atĠtheĠtimeĠ": 6424,
      "letterĠ": 6425,
      "fansĠ": 6426,
      "HillĠ": 6427,
      "TGGAACC": 6428,
      "defeatĠ": 6429,
      "ez": 6430,
      "Mr": 6431,
      "Äĩ": 6432,
      "49Ġ": 6433,
      "hadĠtoĠ": 6434,
      "erĠ(Ġ": 6435,
      "TGCCCGCC": 6436,
      "AGAATGC": 6437,
      "Hal": 6438,
      "SeaĠ": 6439,
      "ATCATCC": 6440,
      "friendsĠ": 6441,
      "ATCTGAC": 6442,
      "yz": 6443,
      "twentyĠ": 6444,
      "2011Ġ,Ġ": 6445,
      "Rail": 6446,
      "AAAATAT": 6447,
      "ATAGAAC": 6448,
      "accessĠ": 6449,
      "tivi": 6450,
      "@-@ĠupĠ": 6451,
      "candid": 6452,
      "iel": 6453,
      "ACAGGGC": 6454,
      "placedĠ": 6455,
      "TTGCTTG": 6456,
      "outĠofĠtheĠ": 6457,
      "ChrisĠ": 6458,
      "annualĠ": 6459,
      "TCTTGGG": 6460,
      "AGGAAAG": 6461,
      "ATTGTGC": 6462,
      "GTGCC": 6463,
      "Sk": 6464,
      "ATTGTAC": 6465,
      "eter": 6466,
      "isticĠ": 6467,
      "lemĠ": 6468,
      "opin": 6469,
      "TTGGAAG": 6470,
      "fromĠhisĠ": 6471,
      "formedĠ": 6472,
      "inĠ195": 6473,
      "TexasĠ": 6474,
      "ty": 6475,
      "forĠ\"Ġ": 6476,
      "TCACTGCAACCTCCGCC": 6477,
      "hu": 6478,
      "AAACTAA": 6479,
      "liamentĠ": 6480,
      "appe": 6481,
      "extrem": 6482,
      "AGATTGG": 6483,
      "resultingĠ": 6484,
      "attemptĠtoĠ": 6485,
      "asionĠ": 6486,
      "ationsĠofĠ": 6487,
      "effectĠ": 6488,
      "Phili": 6489,
      "Go": 6490,
      "paidĠ": 6491,
      "AGCAGAC": 6492,
      "TCCCGG": 6493,
      "Hom": 6494,
      "inchĠ": 6495,
      "ATCATGCC": 6496,
      "ATCATAA": 6497,
      "embl": 6498,
      "47Ġ": 6499,
      "danceĠ": 6500,
      "wil": 6501,
      "AAGCGC": 6502,
      "impres": 6503,
      "IndiaĠ": 6504,
      "48Ġ": 6505,
      "Bow": 6506,
      "AGCATTC": 6507,
      "TTAATAG": 6508,
      "minuteĠ": 6509,
      "gameĠ,Ġ": 6510,
      "ACTTTGC": 6511,
      "ATGTAAG": 6512,
      "TCAGAAC": 6513,
      "TCATTGG": 6514,
      "ollowĠ": 6515,
      "pairĠ": 6516,
      "maxim": 6517,
      "AGTCTCC": 6518,
      "Arm": 6519,
      "AATGGGC": 6520,
      "ACCTCGGCC": 6521,
      "TACGC": 6522,
      "TeamĠ": 6523,
      "ATAGAAG": 6524,
      ".ĠHoweverĠ,ĠtheĠ": 6525,
      "smallerĠ": 6526,
      "AAATATTC": 6527,
      "Ru": 6528,
      "aeĠ": 6529,
      "inĠandĠ": 6530,
      "itĠtheĠ": 6531,
      "separateĠ": 6532,
      "religiousĠ": 6533,
      "netĠ": 6534,
      "forĠitsĠ": 6535,
      "Don": 6536,
      "eigh": 6537,
      "AAGGTAA": 6538,
      "GCCTGCC": 6539,
      "AGCATCC": 6540,
      "AATGATG": 6541,
      "ationĠ.ĠĊ": 6542,
      "etteĠ": 6543,
      "TTTĊ": 6544,
      "TATAAGC": 6545,
      "ACACGC": 6546,
      "chesterĠ": 6547,
      "rightsĠ": 6548,
      "hospit": 6549,
      "popĠ": 6550,
      "see": 6551,
      "weal": 6552,
      "GAGGC": 6553,
      "gi": 6554,
      "TAACAGAG": 6555,
      "TCCTGTG": 6556,
      "try": 6557,
      "restĠofĠtheĠ": 6558,
      "TCCTCTG": 6559,
      "Fle": 6560,
      "statingĠ": 6561,
      "onĠAugustĠ": 6562,
      "TGATAAC": 6563,
      "TATAAAAC": 6564,
      "legisl": 6565,
      "Academ": 6566,
      "pursu": 6567,
      "schol": 6568,
      "eutenantĠ": 6569,
      "AATGTGC": 6570,
      "TTTTTTAA": 6571,
      "teamsĠ": 6572,
      "ATCTATG": 6573,
      "AGTAAGC": 6574,
      "TGATATC": 6575,
      "LoveĠ": 6576,
      "TCAAGCC": 6577,
      "edĠforĠtheĠ": 6578,
      "ACAGATG": 6579,
      "TCAGGAGGCTGAGGCAGGAGAA": 6580,
      "Produc": 6581,
      "MaryĠ": 6582,
      "TCTAAAA": 6583,
      "withĠherĠ": 6584,
      "buildingsĠ": 6585,
      "AGACAAG": 6586,
      "ACATTGG": 6587,
      "TGATTTG": 6588,
      "cust": 6589,
      "antasyĠ": 6590,
      "araĠ": 6591,
      "theirĠownĠ": 6592,
      "ACCACCC": 6593,
      "AAACAAG": 6594,
      "chem": 6595,
      "depend": 6596,
      "primar": 6597,
      "antĠtoĠ": 6598,
      "acrossĠ": 6599,
      "epart": 6600,
      "TTAAGCC": 6601,
      "TCCATCTC": 6602,
      "TGAAACCCTGTCTC": 6603,
      "TCAGTAA": 6604,
      ".ĠBothĠ": 6605,
      "wasĠtoĠ": 6606,
      "TATTATT": 6607,
      "GTTG": 6608,
      "inĠthisĠ": 6609,
      "responsibleĠ": 6610,
      "low": 6611,
      "TGGTGAC": 6612,
      "cerem": 6613,
      "susp": 6614,
      "abe": 6615,
      "TGTATTG": 6616,
      "wholeĠ": 6617,
      "demon": 6618,
      "AAACTTC": 6619,
      "ograp": 6620,
      "scienceĠ": 6621,
      "CourtĠ": 6622,
      "Er": 6623,
      "ATGTAAC": 6624,
      "enĠandĠ": 6625,
      "siv": 6626,
      ".ĠThe": 6627,
      "yearĠ@-@Ġ": 6628,
      "killedĠ": 6629,
      "tradeĠ": 6630,
      "TTTCAAG": 6631,
      "ACACAAC": 6632,
      "TGAATAC": 6633,
      "hav": 6634,
      "TCAGTAAC": 6635,
      "producerĠ": 6636,
      "resultĠ": 6637,
      "ATTGAAG": 6638,
      "GCCACTGCACTCCAGCC": 6639,
      "hisĠfirstĠ": 6640,
      "someĠofĠtheĠ": 6641,
      "ipl": 6642,
      "oilĠ": 6643,
      "yaĠ": 6644,
      "TTGGGAGGCTGAGGCAGGAGAA": 6645,
      "actedĠ": 6646,
      "Dar": 6647,
      "deadĠ": 6648,
      "shireĠ": 6649,
      "2Ġ)Ġ": 6650,
      "bothĠtheĠ": 6651,
      "TGTGAAC": 6652,
      "ATCTTGC": 6653,
      "edĠitsĠ": 6654,
      "repe": 6655,
      "TGAGATG": 6656,
      "titledĠ": 6657,
      "haĠ": 6658,
      "ATACCAC": 6659,
      "TTTGAAAA": 6660,
      "story": 6661,
      "GreekĠ": 6662,
      "TTTTGTTTTG": 6663,
      "TGCTCTG": 6664,
      "modelĠ": 6665,
      "eathĠ": 6666,
      "awardĠ": 6667,
      "prop": 6668,
      "AATTAAG": 6669,
      "Hous": 6670,
      "ACATTCC": 6671,
      "ATCAGCC": 6672,
      "ATATGGG": 6673,
      "referredĠtoĠ": 6674,
      "TTCAGGG": 6675,
      "TTCATAA": 6676,
      "TCAGATG": 6677,
      "LakeĠ": 6678,
      "ACCTTTT": 6679,
      "itz": 6680,
      "ATGCTGG": 6681,
      "economicĠ": 6682,
      "hou": 6683,
      "stopĠ": 6684,
      "onĠOctoberĠ": 6685,
      "&Ġ": 6686,
      "39Ġ": 6687,
      "400Ġ": 6688,
      "alismĠ": 6689,
      "directedĠbyĠ": 6690,
      "adesĠ": 6691,
      "continueĠ": 6692,
      "relyĠ": 6693,
      "95Ġ": 6694,
      "thel": 6695,
      "morningĠ": 6696,
      "payĠ": 6697,
      "TAGTCC": 6698,
      "ACACGG": 6699,
      "185": 6700,
      "windsĠ": 6701,
      "ATAAAACC": 6702,
      "hoursĠ": 6703,
      "ACCTTTC": 6704,
      "ATGGAAC": 6705,
      "AGGACCC": 6706,
      "TATCTGC": 6707,
      "dealĠ": 6708,
      "EarlyĠ": 6709,
      "AAAATCC": 6710,
      "boundĠ": 6711,
      "TTCTAAG": 6712,
      "poolĠ": 6713,
      "opeĠ": 6714,
      "AfricanĠ": 6715,
      "TATAACC": 6716,
      "shoo": 6717,
      "minutesĠ": 6718,
      "JackĠ": 6719,
      "AAAAAGAA": 6720,
      "GAGC": 6721,
      "idsĠ": 6722,
      "ATAAAGC": 6723,
      "secu": 6724,
      "BigĠ": 6725,
      "Gir": 6726,
      "TTGTCTG": 6727,
      "pal": 6728,
      "maleĠ": 6729,
      "atinĠ": 6730,
      "opport": 6731,
      "ATAGTAA": 6732,
      "exhi": 6733,
      "retaryĠ": 6734,
      "AGGTGAA": 6735,
      "ACCATTC": 6736,
      "afterĠaĠ": 6737,
      "TCTTGCTCTG": 6738,
      "ledĠtoĠ": 6739,
      "AGCAGTTTGG": 6740,
      "TCATGGC": 6741,
      "impro": 6742,
      "GĠ": 6743,
      "TTGAGAA": 6744,
      "TTAGAAG": 6745,
      "TCTTTATT": 6746,
      "ATAGGGC": 6747,
      "TTCATGC": 6748,
      "ATCTGAA": 6749,
      "TTTCAGC": 6750,
      "plantĠ": 6751,
      "naĠ": 6752,
      "tin": 6753,
      "AGCAGGTTTG": 6754,
      "InfantryĠ": 6755,
      "ATGAGAC": 6756,
      ";ĠheĠ": 6757,
      "SquadronĠ": 6758,
      "11": 6759,
      "mem": 6760,
      ";ĠandĠ": 6761,
      "statusĠ": 6762,
      "ATACCCC": 6763,
      "AAGGGGG": 6764,
      ":ĠtheĠ": 6765,
      "log": 6766,
      "tableĠ": 6767,
      "sĠ,ĠaĠ": 6768,
      "MyĠ": 6769,
      "AAAAAAAC": 6770,
      "Egyp": 6771,
      "You": 6772,
      "ATTAATG": 6773,
      "AllĠ": 6774,
      "iedĠ": 6775,
      "appar": 6776,
      "TATATACCC": 6777,
      "failedĠtoĠ": 6778,
      "Rel": 6779,
      "ATCTGTC": 6780,
      "AAAGTCC": 6781,
      "help": 6782,
      "Youn": 6783,
      "ACCTGTG": 6784,
      "rid": 6785,
      "anceĠ,Ġ": 6786,
      "ightlyĠ": 6787,
      "ATTGTTTT": 6788,
      "TAGAGAC": 6789,
      "quartersĠ": 6790,
      "BrownĠ": 6791,
      "AGAGTGAGAC": 6792,
      "ersĠ.ĠĊ": 6793,
      "GATG": 6794,
      "AAAĊ": 6795,
      "TAAAAATT": 6796,
      "ingĠofĠtheĠ": 6797,
      "compet": 6798,
      "encoun": 6799,
      "TATGTAC": 6800,
      "tookĠplaceĠ": 6801,
      "easeĠ": 6802,
      "networkĠ": 6803,
      "Sup": 6804,
      "strug": 6805,
      "remainĠ": 6806,
      "passedĠ": 6807,
      "ficationĠ": 6808,
      "GroupĠ": 6809,
      "YearĠ": 6810,
      "inĠorderĠtoĠ": 6811,
      "ATCCCCC": 6812,
      "visit": 6813,
      "FinalĠ": 6814,
      "competitionĠ": 6815,
      "Bre": 6816,
      "TTGGCCC": 6817,
      "havi": 6818,
      "thous": 6819,
      "diedĠ": 6820,
      "Depart": 6821,
      "TCAAGGC": 6822,
      "activityĠ": 6823,
      "AAGCTGC": 6824,
      "ayl": 6825,
      "primarilyĠ": 6826,
      "fill": 6827,
      "attentionĠ": 6828,
      "AACATAA": 6829,
      "TCTGAAG": 6830,
      "Steph": 6831,
      "TCATCCC": 6832,
      "constructedĠ": 6833,
      "tournam": 6834,
      "AGTGTGG": 6835,
      "relativelyĠ": 6836,
      "AGTAGCC": 6837,
      "raticĠ": 6838,
      "eachĠotherĠ": 6839,
      "gaveĠtheĠ": 6840,
      "hus": 6841,
      "ACCCTGC": 6842,
      "startĠ": 6843,
      "TCCCTAC": 6844,
      "ACTTTAC": 6845,
      "AGGCGGAGGTTGCAGTG": 6846,
      "nyĠ": 6847,
      "ATTATGC": 6848,
      "ACACAGG": 6849,
      "alleg": 6850,
      "ofĠtheirĠ": 6851,
      "GCCCCC": 6852,
      "ACAAAGC": 6853,
      "ledĠbyĠ": 6854,
      "AGATAGC": 6855,
      "Penn": 6856,
      "ATGTTAA": 6857,
      "combatĠ": 6858,
      "actuallyĠ": 6859,
      "portray": 6860,
      "TTTTCTTTTC": 6861,
      "AGACCATCCTGGCTAAC": 6862,
      "TATGTGC": 6863,
      "May": 6864,
      "2012Ġ,Ġ": 6865,
      ".ĠThatĠ": 6866,
      "weak": 6867,
      "TCATTTG": 6868,
      "streamĠ": 6869,
      "Haw": 6870,
      "OldĠ": 6871,
      "passĠ": 6872,
      "olderĠ": 6873,
      "Fed": 6874,
      "themĠtoĠ": 6875,
      "TGATAAG": 6876,
      ".ĠAllĠ": 6877,
      "TGATTGC": 6878,
      "AGTTGGC": 6879,
      "greaterĠ": 6880,
      "respond": 6881,
      "utyĠ": 6882,
      "TGTTTTGG": 6883,
      "AGTTGCC": 6884,
      "extendedĠ": 6885,
      "HotĠ": 6886,
      "uralĠ": 6887,
      "2001Ġ": 6888,
      "TAGACC": 6889,
      "AAAGACC": 6890,
      "startingĠ": 6891,
      "ATCACCTGAGGTCAGGAG": 6892,
      "potentialĠ": 6893,
      "TTGAAGC": 6894,
      "TATGAAG": 6895,
      "TCTCGAACTCCTGACCTC": 6896,
      "65Ġ": 6897,
      "ATTTATTC": 6898,
      "metresĠ(Ġ": 6899,
      "AGCTCAC": 6900,
      "ATCTGGC": 6901,
      "ATTCATG": 6902,
      "shouldĠbeĠ": 6903,
      "chiefĠ": 6904,
      "TTCTAAC": 6905,
      "AGCTTGCAGTG": 6906,
      "sourceĠ": 6907,
      "TTAAGGC": 6908,
      "courseĠ": 6909,
      "erateĠ": 6910,
      "TAGTATT": 6911,
      "psy": 6912,
      "xfordĠ": 6913,
      "ecaus": 6914,
      "edĠtheirĠ": 6915,
      "acu": 6916,
      "inĠtheĠfirstĠ": 6917,
      "ATCATGC": 6918,
      "recomm": 6919,
      "TATAATT": 6920,
      "itĠtoĠ": 6921,
      "flow": 6922,
      "Il": 6923,
      "wher": 6924,
      "manu": 6925,
      "particularĠ": 6926,
      "ATCACCC": 6927,
      "edĠintoĠ": 6928,
      "BattalionĠ": 6929,
      "kindĠ": 6930,
      "TGATAT": 6931,
      "AAACGG": 6932,
      "AGAAAAGC": 6933,
      "symb": 6934,
      "volum": 6935,
      "graph": 6936,
      "Åį": 6937,
      "ACĊ": 6938,
      "ielĠ": 6939,
      "TGTATCC": 6940,
      "TTCATTG": 6941,
      "TGTCTTG": 6942,
      "financialĠ": 6943,
      "TAAACAC": 6944,
      "launch": 6945,
      "highĠ@-@Ġ": 6946,
      "AGGATTC": 6947,
      "TCTGTGG": 6948,
      "mixedĠ": 6949,
      "chos": 6950,
      "peakedĠ": 6951,
      "TGAATGC": 6952,
      "prin": 6953,
      "cordingĠtoĠtheĠ": 6954,
      "last": 6955,
      "TTATCCC": 6956,
      "TGGAGATTTC": 6957,
      "iĠandĠ": 6958,
      "Mel": 6959,
      "AAGAATC": 6960,
      "altyĠ": 6961,
      "AGCCATG": 6962,
      "receivedĠaĠ": 6963,
      "Sam": 6964,
      "other": 6965,
      "yanĠ": 6966,
      "helpedĠ": 6967,
      "audienceĠ": 6968,
      "AATCCCC": 6969,
      "mechan": 6970,
      "AGATTTT": 6971,
      "TAAAATT": 6972,
      "TTAATATT": 6973,
      "adingĠ": 6974,
      "AAAAGAAC": 6975,
      "collabor": 6976,
      "TGAGGAG": 6977,
      "todayĠ": 6978,
      "ATCAATG": 6979,
      "TGAAAGC": 6980,
      "thereĠareĠ": 6981,
      "battles": 6982,
      "royalĠ": 6983,
      "multipleĠ": 6984,
      "\"Ġ)Ġ": 6985,
      "chap": 6986,
      "document": 6987,
      "ultimatelyĠ": 6988,
      "AGACGC": 6989,
      "groupĠofĠ": 6990,
      "strateg": 6991,
      "lengthĠ": 6992,
      "34Ġ": 6993,
      "forĠtheirĠ": 6994,
      "movedĠtoĠ": 6995,
      "theĠsameĠ": 6996,
      "TTAGAAC": 6997,
      "Simp": 6998,
      "roĠ": 6999,
      "TCATGGG": 7000,
      "pret": 7001,
      "greatestĠ": 7002,
      "ofĠherĠ": 7003,
      "olu": 7004,
      "TCAGTGC": 7005,
      "AATTGGC": 7006,
      "ACCTCAC": 7007,
      "TAGAGAA": 7008,
      "Ste": 7009,
      "coachĠ": 7010,
      "dĠ,Ġ": 7011,
      "AGGGAGC": 7012,
      "ATAAGGC": 7013,
      "wick": 7014,
      "TCCTTTG": 7015,
      "TCCTTGC": 7016,
      "hir": 7017,
      "sellĠ": 7018,
      "Viet": 7019,
      "TCCAGAA": 7020,
      "TCTCGC": 7021,
      "passeng": 7022,
      "ationĠinĠ": 7023,
      "isonĠ": 7024,
      "debu": 7025,
      "Princ": 7026,
      "ChinaĠ": 7027,
      "markĠ": 7028,
      "bra": 7029,
      "AACTGTG": 7030,
      "shap": 7031,
      "BattleĠofĠ": 7032,
      "AGACAGAA": 7033,
      "toĠ@-@Ġ": 7034,
      "AGGCTGGAG": 7035,
      "TAAAAGG": 7036,
      "miss": 7037,
      "joinedĠtheĠ": 7038,
      "ink": 7039,
      "TCTGTAG": 7040,
      "describedĠtheĠ": 7041,
      "attemptedĠtoĠ": 7042,
      "practiceĠ": 7043,
      "couldĠnotĠ": 7044,
      "TCATAGG": 7045,
      "GGGGGG": 7046,
      "EntertainmentĠ": 7047,
      "TACAGGC": 7048,
      "umentsĠ": 7049,
      "genĠ": 7050,
      "TGTGTTTT": 7051,
      "completelyĠ": 7052,
      "tilleryĠ": 7053,
      "fish": 7054,
      "ACTATTC": 7055,
      "Spec": 7056,
      "!Ġ": 7057,
      "soughtĠ": 7058,
      "TGTATGC": 7059,
      "TATACATG": 7060,
      "TCCCTGG": 7061,
      "TGACTTC": 7062,
      "activi": 7063,
      "cycloneĠ": 7064,
      "ledĠtheĠ": 7065,
      "TAATAAC": 7066,
      "AGCTTTG": 7067,
      "ACTGAAG": 7068,
      "ACTGTTG": 7069,
      "TCCTACC": 7070,
      "TGATAAAA": 7071,
      "TCCCAAC": 7072,
      "preventĠ": 7073,
      "takesĠ": 7074,
      "TAATTTG": 7075,
      "igg": 7076,
      "ACAAACC": 7077,
      ".ĠAd": 7078,
      "torped": 7079,
      "independentĠ": 7080,
      "sylvan": 7081,
      "Sim": 7082,
      "ATCTGGG": 7083,
      "slightlyĠ": 7084,
      "MSĠ": 7085,
      "mun": 7086,
      "AGTCTCGCTCTG": 7087,
      "collegeĠ": 7088,
      "mouthĠ": 7089,
      "arityĠ": 7090,
      "mingĠ": 7091,
      "becauseĠofĠ": 7092,
      "sens": 7093,
      "ATCAAGC": 7094,
      "CCCAGG": 7095,
      "oisĠ": 7096,
      "TTAATTG": 7097,
      "forcedĠtoĠ": 7098,
      "maximumĠ": 7099,
      "ACCTGGCC": 7100,
      "orĠandĠ": 7101,
      ",ĠwhileĠ": 7102,
      "5Ġ@.@Ġ": 7103,
      "ACTGGGC": 7104,
      "ATTTTTTG": 7105,
      "ATCTACC": 7106,
      "adm": 7107,
      "AATCTAC": 7108,
      "auĠ": 7109,
      "hereĠ": 7110,
      "TGATACC": 7111,
      "whichĠisĠ": 7112,
      "declin": 7113,
      "AAGAGAG": 7114,
      "TCATGCCTGTAATCCCAGCACTTTGGG": 7115,
      "PrinceĠ": 7116,
      "Back": 7117,
      "leavingĠ": 7118,
      "EarthĠ": 7119,
      "towardsĠtheĠ": 7120,
      "Gran": 7121,
      "TATTGCC": 7122,
      "ATACATG": 7123,
      "seem": 7124,
      "ipalĠ": 7125,
      "isedĠ": 7126,
      "46Ġ": 7127,
      ".ĠTheirĠ": 7128,
      "AAGGATG": 7129,
      "forĠherĠ": 7130,
      "(Ġ199": 7131,
      "minim": 7132,
      "drawĠ": 7133,
      "TTCTTAC": 7134,
      "meetingĠ": 7135,
      "AGCTATG": 7136,
      "OĠ'": 7137,
      "miralĠ": 7138,
      "enjoy": 7139,
      "sellingĠ": 7140,
      "ACCAAGC": 7141,
      "AGCTTGC": 7142,
      "AGGGTGG": 7143,
      "TCCCGC": 7144,
      "subst": 7145,
      "suppl": 7146,
      "reportĠ": 7147,
      "vess": 7148,
      "sust": 7149,
      "TTGGCCTCCC": 7150,
      "mainlyĠ": 7151,
      "FloridaĠ": 7152,
      "TTAAAAAAAA": 7153,
      "AAACGC": 7154,
      "TTCCTAG": 7155,
      "AATGCCC": 7156,
      "boatĠ": 7157,
      "ae": 7158,
      "FilmĠ": 7159,
      "inkingĠ": 7160,
      "inĠT": 7161,
      "TGAAACCC": 7162,
      "192": 7163,
      "ACCATGCCCAGC": 7164,
      "managerĠ": 7165,
      "ans": 7166,
      "TTCACCC": 7167,
      "TATTAAAA": 7168,
      "perf": 7169,
      "alryĠ": 7170,
      "179": 7171,
      "hard": 7172,
      "Shi": 7173,
      "ationĠtoĠ": 7174,
      "industryĠ": 7175,
      "coast": 7176,
      "recordsĠ": 7177,
      "TTCATGG": 7178,
      "Dun": 7179,
      "AGGAAAAG": 7180,
      "transl": 7181,
      "mal": 7182,
      "mess": 7183,
      "ATCTAT": 7184,
      "ATCAGGG": 7185,
      "ACACATGC": 7186,
      "AACCCCC": 7187,
      "wrot": 7188,
      "shipĠ,Ġ": 7189,
      "Â°Ġ": 7190,
      "laĠ": 7191,
      "AACTTTC": 7192,
      "ullyĠ": 7193,
      "LosĠAngel": 7194,
      "tel": 7195,
      "statedĠthatĠ": 7196,
      "Str": 7197,
      "ticleĠ": 7198,
      "Arth": 7199,
      "chestr": 7200,
      "TTCTAGG": 7201,
      "TTCTATG": 7202,
      "TTGTAAG": 7203,
      "Dut": 7204,
      "ualsĠ": 7205,
      "AGGATAC": 7206,
      "doĠnotĠ": 7207,
      "cot": 7208,
      "ACCACTGC": 7209,
      "energyĠ": 7210,
      "advis": 7211,
      "cherĠ": 7212,
      "sav": 7213,
      "storiesĠ": 7214,
      "manĠ,Ġ": 7215,
      "drawnĠ": 7216,
      "ACAGGCC": 7217,
      "ATGGGGC": 7218,
      "specificĠ": 7219,
      "estivalĠ": 7220,
      "ATCTTAC": 7221,
      "ACCAGAA": 7222,
      "subsequentĠ": 7223,
      ".ĠManyĠ": 7224,
      "SmithĠ": 7225,
      "abandon": 7226,
      "massĠ": 7227,
      "braryĠ": 7228,
      "ACAGAAGCATTCTCAGAA": 7229,
      "concent": 7230,
      ".ĠMostĠ": 7231,
      "winterĠ": 7232,
      "Sum": 7233,
      "fran": 7234,
      "sn": 7235,
      "TAATATC": 7236,
      "UKĠ": 7237,
      "TCTATTG": 7238,
      "TTTAGTAGAGATGGGG": 7239,
      "TCATAT": 7240,
      "TGCTGGC": 7241,
      "AGTATTG": 7242,
      "TCCAGTC": 7243,
      "ATTCCATTCC": 7244,
      "AAATATCTTCCC": 7245,
      "richĠ": 7246,
      "facil": 7247,
      "AAACAGC": 7248,
      "oversĠ": 7249,
      "AGCCAGC": 7250,
      "AGACAAC": 7251,
      "ogueĠ": 7252,
      "thereĠwasĠ": 7253,
      "goalsĠ": 7254,
      "TACTAAAAATACAAAAAATT": 7255,
      "TACATAA": 7256,
      "water": 7257,
      "movingĠ": 7258,
      "hostĠ": 7259,
      "ATGGGCC": 7260,
      "GGCGC": 7261,
      "iaĠandĠ": 7262,
      "designatedĠ": 7263,
      "ServiceĠ": 7264,
      "along": 7265,
      "TATGTGTG": 7266,
      "Chil": 7267,
      "EmpireĠ": 7268,
      "Ri": 7269,
      "GGGGCC": 7270,
      "TTCCTTTC": 7271,
      "TGTAAGC": 7272,
      "successfullyĠ": 7273,
      "TATTTTTAA": 7274,
      "actsĠ": 7275,
      "meetĠ": 7276,
      "TestĠ": 7277,
      "okeĠ": 7278,
      "TTCTGAC": 7279,
      "AGTGTAG": 7280,
      "ATAGATG": 7281,
      "(ĠtheĠ": 7282,
      "ACGCCC": 7283,
      "ruleĠ": 7284,
      "movieĠ": 7285,
      "recentĠ": 7286,
      "AAGTGGACATT": 7287,
      "44Ġ": 7288,
      "AGACTTG": 7289,
      "41Ġ": 7290,
      "sizeĠ": 7291,
      "featuredĠ": 7292,
      "mphĠ(Ġ": 7293,
      "navalĠ": 7294,
      "propertyĠ": 7295,
      "ACTGGCC": 7296,
      "TTCTACC": 7297,
      "encour": 7298,
      "TTTGTTTC": 7299,
      "illsĠ": 7300,
      "ATCATTG": 7301,
      "TAACAAC": 7302,
      "behavi": 7303,
      "feel": 7304,
      "widelyĠ": 7305,
      "Si": 7306,
      "Sol": 7307,
      "TAATTAA": 7308,
      "unitĠ": 7309,
      "ephĠ": 7310,
      "whichĠtheĠ": 7311,
      ".ĠSinceĠ": 7312,
      "invasionĠ": 7313,
      "kgĠ": 7314,
      "ATTTATTG": 7315,
      "alsĠandĠ": 7316,
      "struckĠ": 7317,
      "likeĠtheĠ": 7318,
      "shortlyĠ": 7319,
      "Ire": 7320,
      "TAAATTG": 7321,
      "TTCCAAC": 7322,
      "urg": 7323,
      "voic": 7324,
      "sivelyĠ": 7325,
      "eticĠ": 7326,
      "ingsĠandĠ": 7327,
      "Bor": 7328,
      "Ram": 7329,
      "thatĠisĠ": 7330,
      "rativeĠ": 7331,
      "bloodĠ": 7332,
      "guitarĠ": 7333,
      "ATCCTTG": 7334,
      "Stan": 7335,
      "advant": 7336,
      "ATTTTTCC": 7337,
      "ATGTTGC": 7338,
      "onĠtheirĠ": 7339,
      "div": 7340,
      "ersĠinĠ": 7341,
      "perialĠ": 7342,
      "Whit": 7343,
      "nominatedĠ": 7344,
      "Sun": 7345,
      "peopl": 7346,
      "AATACCC": 7347,
      "TATTGTG": 7348,
      "areĠtheĠ": 7349,
      "ATCTATC": 7350,
      "GAAC": 7351,
      "AGATAGG": 7352,
      "ATTTGAG": 7353,
      "TGGATGG": 7354,
      "TCCCACCTCAGCC": 7355,
      ".ĠAnotherĠ": 7356,
      "sufferedĠ": 7357,
      "ACGGGG": 7358,
      "ATACAAC": 7359,
      "ight": 7360,
      "aĠ,ĠandĠ": 7361,
      "performanc": 7362,
      "ACTGGGG": 7363,
      "impl": 7364,
      "perorĠ": 7365,
      "slow": 7366,
      "TCCACAC": 7367,
      "AAAATATC": 7368,
      "yourĠ": 7369,
      "Holl": 7370,
      "AGCAAGG": 7371,
      "TGTGTTG": 7372,
      "WeĠ": 7373,
      "filmĠ'sĠ": 7374,
      "dedic": 7375,
      ".ĠTheĠsongĠ": 7376,
      "spac": 7377,
      "circ": 7378,
      "istĠofĠ": 7379,
      "officiallyĠ": 7380,
      "expos": 7381,
      "ockeyĠ": 7382,
      "AGGAATC": 7383,
      "seg": 7384,
      "ishopĠ": 7385,
      "captainĠ": 7386,
      "abilityĠtoĠ": 7387,
      "Hel": 7388,
      "ACAGTGG": 7389,
      "screenĠ": 7390,
      "ClubĠ": 7391,
      "TACAACC": 7392,
      "TGAATTG": 7393,
      "industri": 7394,
      "themselvesĠ": 7395,
      "kĠandĠ": 7396,
      "earsĠ": 7397,
      "TCCCCG": 7398,
      "TGCAGAA": 7399,
      "conditionsĠ": 7400,
      "NH": 7401,
      "ATGTCTG": 7402,
      "ACCTTGG": 7403,
      "inalĠ": 7404,
      "AGTATGG": 7405,
      "ACCTCTG": 7406,
      "TGTGTGG": 7407,
      "qualityĠ": 7408,
      "speci": 7409,
      "TGGGCGACAG": 7410,
      "UĠ": 7411,
      "weatherĠ": 7412,
      "Luc": 7413,
      "ATCATGG": 7414,
      "AAGAAAG": 7415,
      "brokeĠ": 7416,
      "advanceĠ": 7417,
      "AAGCTGG": 7418,
      "TCCTGAC": 7419,
      "TTCAGGC": 7420,
      "nin": 7421,
      "turn": 7422,
      "twel": 7423,
      "ATGTCAC": 7424,
      "term": 7425,
      "85Ġ": 7426,
      "keptĠ": 7427,
      "TCATATG": 7428,
      "ATGTACC": 7429,
      "anĠ\"Ġ": 7430,
      "trafficĠ": 7431,
      "AAGTGATCC": 7432,
      "TGAAATT": 7433,
      ".ĠIfĠ": 7434,
      "TATGCAGCC": 7435,
      "phil": 7436,
      "friend": 7437,
      "tax": 7438,
      "hisĠownĠ": 7439,
      "mineĠ": 7440,
      "federalĠ": 7441,
      "Civ": 7442,
      "AGCTAAC": 7443,
      "TACTATT": 7444,
      "ingĠherĠ": 7445,
      "TTCCTAA": 7446,
      "world": 7447,
      "43Ġ": 7448,
      "TTATATAA": 7449,
      "tionaryĠ": 7450,
      "AGTTGGG": 7451,
      "TGCTCTC": 7452,
      "elim": 7453,
      "2013Ġ,Ġ": 7454,
      "TGGCTCACGCCTGTAATCCCAGCACTTTGGG": 7455,
      "oredĠ": 7456,
      "TAGAATG": 7457,
      "TAGCCCC": 7458,
      "meantĠ": 7459,
      "Gol": 7460,
      "AGGTCAC": 7461,
      "TACAGTG": 7462,
      "ATAATATT": 7463,
      "MuseumĠ": 7464,
      "TTATACC": 7465,
      "TTCACAC": 7466,
      "trainĠ": 7467,
      "ittingĠ": 7468,
      "ulfĠ": 7469,
      "How": 7470,
      "ACCAACC": 7471,
      "TTCTGAG": 7472,
      "restor": 7473,
      "rot": 7474,
      "const": 7475,
      "Camp": 7476,
      "AGACTGG": 7477,
      "ATATATATG": 7478,
      "floo": 7479,
      "ACCGCGCCC": 7480,
      "affectedĠ": 7481,
      "problemsĠ": 7482,
      "ATGACAC": 7483,
      "Doc": 7484,
      "issueĠ": 7485,
      "touch": 7486,
      ",ĠwasĠ": 7487,
      "foreignĠ": 7488,
      "analys": 7489,
      "AGTAGGC": 7490,
      "TCTTTTCC": 7491,
      "TAGAAGC": 7492,
      "TACATTC": 7493,
      "peakĠ": 7494,
      "effectiveĠ": 7495,
      "ATCTTAA": 7496,
      "contentĠ": 7497,
      "bridg": 7498,
      "600Ġ": 7499,
      "iusĠ": 7500,
      "ACCAGGG": 7501,
      "ilĠ,Ġ": 7502,
      "TTGGGAGGC": 7503,
      "aheadĠ": 7504,
      "TTACCTC": 7505,
      "TTCTATC": 7506,
      "ram": 7507,
      "TGATTTT": 7508,
      "sli": 7509,
      "TCAGGGG": 7510,
      "GGGCCC": 7511,
      "ATTGGCC": 7512,
      "AAACTTG": 7513,
      "ATATTTAA": 7514,
      "providedĠ": 7515,
      "schedul": 7516,
      "Lif": 7517,
      "complexĠ": 7518,
      "bandĠ'sĠ": 7519,
      "aim": 7520,
      "hot": 7521,
      "AACTCCC": 7522,
      "AAACACTCTG": 7523,
      "fourĠ@-@Ġ": 7524,
      "powerfulĠ": 7525,
      "4thĠ": 7526,
      "AGCACCC": 7527,
      "damag": 7528,
      "TTTATTGC": 7529,
      "counc": 7530,
      "batter": 7531,
      "Croati": 7532,
      "AAAGAAGG": 7533,
      "longĠ@-@Ġ": 7534,
      "marriageĠ": 7535,
      "10Ġ,Ġ": 7536,
      "howeverĠ": 7537,
      "lack": 7538,
      "benef": 7539,
      "AATGGAG": 7540,
      "AACACAC": 7541,
      "esĠwithĠ": 7542,
      "engineĠ": 7543,
      "ScotlandĠ": 7544,
      "RockĠ": 7545,
      "pul": 7546,
      "aĠ.ĠTheĠ": 7547,
      "GGGCGCC": 7548,
      "NewĠZealandĠ": 7549,
      "tac": 7550,
      "AATTTTCC": 7551,
      "TTCCTTTT": 7552,
      "Gal": 7553,
      "terĠ@-@Ġ": 7554,
      "travel": 7555,
      "JacksonĠ": 7556,
      "78Ġ": 7557,
      "resist": 7558,
      "esĠ,ĠtheĠ": 7559,
      "CreekĠ": 7560,
      "eballĠ": 7561,
      "brief": 7562,
      "ATGAGTG": 7563,
      "ATGATGC": 7564,
      "describedĠ": 7565,
      "AAAAAAAAAAAAAAAAAAAA": 7566,
      "AGCACAC": 7567,
      "TATGGCC": 7568,
      "usedĠforĠ": 7569,
      "LiveĠ": 7570,
      "ofĠP": 7571,
      "TCTCTTG": 7572,
      ".ĠByĠtheĠ": 7573,
      "AGGCTTG": 7574,
      "promot": 7575,
      "orĠtoĠtheĠ": 7576,
      "comĠ": 7577,
      "adoĠ": 7578,
      "ersĠ.ĠTheĠ": 7579,
      "centerĠ": 7580,
      "CenterĠ": 7581,
      "certi": 7582,
      "allowedĠ": 7583,
      "laidĠ": 7584,
      "pilotĠ": 7585,
      "5thĠ": 7586,
      "darkĠ": 7587,
      "insul": 7588,
      "AGCATGC": 7589,
      "enz": 7590,
      "dieĠ": 7591,
      "whichĠheĠ": 7592,
      "heavilyĠ": 7593,
      "HallĠ": 7594,
      "ATAATGC": 7595,
      "AGAGTAA": 7596,
      "TATATAG": 7597,
      "AGGGAAGG": 7598,
      "6ĠâĢĵĠ": 7599,
      "7Ġ@.@Ġ": 7600,
      "'reĠ": 7601,
      "callĠ": 7602,
      "west": 7603,
      "FortĠ": 7604,
      "metalĠ": 7605,
      "necessaryĠ": 7606,
      "Bat": 7607,
      "AGAGTTG": 7608,
      "capac": 7609,
      "challeng": 7610,
      "TTATAGG": 7611,
      "squareĠ": 7612,
      "bon": 7613,
      "communic": 7614,
      "AGGTAGG": 7615,
      "mentĠ,Ġ": 7616,
      "TACACAC": 7617,
      "AAAATTTT": 7618,
      "wordsĠ": 7619,
      "versionĠofĠtheĠ": 7620,
      "AGTAAGG": 7621,
      "thisĠtimeĠ": 7622,
      "countyĠ": 7623,
      "agreementĠ": 7624,
      "thingsĠ": 7625,
      "TAAGTGC": 7626,
      "recover": 7627,
      "mol": 7628,
      "ogĠ": 7629,
      "nic": 7630,
      "AAACTAG": 7631,
      "matterĠ": 7632,
      "CaptainĠ": 7633,
      "sam": 7634,
      "ATCAGAC": 7635,
      "includesĠ": 7636,
      "cav": 7637,
      "followĠ": 7638,
      "ingĠforĠ": 7639,
      "approachĠ": 7640,
      "negoti": 7641,
      "asĠheĠ": 7642,
      "ATTCTTCC": 7643,
      "AATAATAA": 7644,
      "worthĠ": 7645,
      "signĠ": 7646,
      "ĠWhenĠ": 7647,
      "ATGTTCC": 7648,
      "ontoĠ": 7649,
      "ACTGAAC": 7650,
      "acquir": 7651,
      "Jus": 7652,
      "askĠ": 7653,
      "girl": 7654,
      "ATGTGGG": 7655,
      "ATAAGGG": 7656,
      "makesĠ": 7657,
      "techni": 7658,
      "Cy": 7659,
      "regul": 7660,
      "ATGAGGC": 7661,
      "TAAATGG": 7662,
      ",ĠD": 7663,
      "whoĠwereĠ": 7664,
      "madeĠaĠ": 7665,
      "categ": 7666,
      "Ob": 7667,
      "SirĠ": 7668,
      "ATGAGGG": 7669,
      "TGGAATG": 7670,
      ".ĠAr": 7671,
      "companiesĠ": 7672,
      "Pic": 7673,
      "TTAAGGG": 7674,
      "2009Ġ,Ġ": 7675,
      "AGAGAAGG": 7676,
      "expe": 7677,
      "AAATATCC": 7678,
      "enemyĠ": 7679,
      "estsĠ": 7680,
      "TTTCACCATGTTGGCC": 7681,
      "wel": 7682,
      "sle": 7683,
      "ACATTTTC": 7684,
      "operationĠ": 7685,
      "TGATCCC": 7686,
      "AATCAAC": 7687,
      "neu": 7688,
      "%ĠofĠtheĠ": 7689,
      "TATAGTG": 7690,
      "AATTCTCCTGCCTCAGCC": 7691,
      "CorpsĠ": 7692,
      "00": 7693,
      "TCCTTGG": 7694,
      "asĠtheyĠ": 7695,
      "2002Ġ": 7696,
      "rangeĠofĠ": 7697,
      "AGAGACC": 7698,
      "TGCATAG": 7699,
      "wingĠ": 7700,
      "onĠJulyĠ": 7701,
      "TGGTACC": 7702,
      "TCCCAGGC": 7703,
      "GGGAGG": 7704,
      "skiĠ": 7705,
      "gri": 7706,
      "42Ġ": 7707,
      "AGACAGG": 7708,
      "danc": 7709,
      "TGAAACC": 7710,
      "Kh": 7711,
      "ATCAAGG": 7712,
      "toĠ\"Ġ": 7713,
      "showsĠ": 7714,
      "executiveĠ": 7715,
      "ATTACAC": 7716,
      "TTTCTTTG": 7717,
      "MajorĠ": 7718,
      "FoxĠ": 7719,
      "cod": 7720,
      "ACATAAAA": 7721,
      "TCCAGTG": 7722,
      "TATGTGG": 7723,
      "AGTTAAC": 7724,
      "Me": 7725,
      "TGTGAGCC": 7726,
      "healthĠ": 7727,
      "prominentĠ": 7728,
      "AGCAAGC": 7729,
      "inĠherĠ": 7730,
      "ATTCACC": 7731,
      "AGAGTAG": 7732,
      "AAGAGGC": 7733,
      "TATGAAC": 7734,
      "ACGTGG": 7735,
      "NorthernĠ": 7736,
      "Ath": 7737,
      "eterĠ": 7738,
      "Madonn": 7739,
      "TGCAAAC": 7740,
      "North": 7741,
      "GTTC": 7742,
      "FleetĠ": 7743,
      "TGAATGAA": 7744,
      "AGCTTGG": 7745,
      "ATAĊ": 7746,
      "describedĠasĠ": 7747,
      "ealĠ": 7748,
      "GTGGC": 7749,
      "TCTCAGG": 7750,
      "ACTCCCC": 7751,
      "GGTGC": 7752,
      "asĠaĠ\"Ġ": 7753,
      "varietyĠofĠ": 7754,
      "opleĠ": 7755,
      "inem": 7756,
      "renĠ": 7757,
      "StĠ": 7758,
      "TGTGTAG": 7759,
      "AGTCAAC": 7760,
      ".ĠAsĠtheĠ": 7761,
      "formul": 7762,
      "basedĠonĠtheĠ": 7763,
      "oudĠ": 7764,
      "TATACAA": 7765,
      "usualĠ": 7766,
      "returningĠ": 7767,
      "cost": 7768,
      "DVDĠ": 7769,
      "Sar": 7770,
      "TourĠ": 7771,
      "mast": 7772,
      "essĠandĠ": 7773,
      "lessĠthanĠ": 7774,
      "XĠ": 7775,
      "AGGTGGGC": 7776,
      "ATGGTGC": 7777,
      "ATCCAGC": 7778,
      "usedĠinĠ": 7779,
      "ATATACC": 7780,
      "ricketĠ": 7781,
      "resultĠofĠ": 7782,
      "citiz": 7783,
      "allyĠ,Ġ": 7784,
      "ACTTGGC": 7785,
      "AGAATTTT": 7786,
      "contemporaryĠ": 7787,
      "TCATAAAA": 7788,
      "TCTTGAACTCCTGACCTC": 7789,
      "TTTCACCGTG": 7790,
      "lizabe": 7791,
      "AS": 7792,
      "egr": 7793,
      "wound": 7794,
      "TGGTGCC": 7795,
      "TGGGTAC": 7796,
      "commanderĠ": 7797,
      "ATCAAAC": 7798,
      "TTTATTCC": 7799,
      "Colon": 7800,
      "TCATAAG": 7801,
      "ATGTTAC": 7802,
      "borderĠ": 7803,
      "rainf": 7804,
      "avoidĠ": 7805,
      "64Ġ": 7806,
      "teredĠ": 7807,
      "TGTAGGC": 7808,
      "towardĠ": 7809,
      "booksĠ": 7810,
      "Bob": 7811,
      ".Ġ(Ġ": 7812,
      "GGGTGC": 7813,
      "earnedĠ": 7814,
      "marriedĠ": 7815,
      "concertĠ": 7816,
      "Dev": 7817,
      "Publ": 7818,
      "foot": 7819,
      "TGTGTAA": 7820,
      "TomĠ": 7821,
      "ensityĠ": 7822,
      "masĠ": 7823,
      "BostonĠ": 7824,
      "gunsĠ": 7825,
      "GTAC": 7826,
      ".ĠInĠaĠ": 7827,
      "thereĠisĠ": 7828,
      "transi": 7829,
      "equip": 7830,
      "exampleĠ,Ġ": 7831,
      "Coll": 7832,
      "MĠ@-@Ġ": 7833,
      "TGAATTTT": 7834,
      "Ġ=Ġ=ĠHistoryĠ": 7835,
      "TTATTTTTT": 7836,
      "second": 7837,
      "AllĠ@-@Ġ": 7838,
      "ChiefĠ": 7839,
      "Austri": 7840,
      "TACTAAAAATACAAAA": 7841,
      "theĠmostĠ": 7842,
      "ingsĠofĠ": 7843,
      "TTATGGG": 7844,
      "TTAGAAAA": 7845,
      "currentlyĠ": 7846,
      "dang": 7847,
      "eplayĠ": 7848,
      "StoneĠ": 7849,
      "RA": 7850,
      "eaĠ,Ġ": 7851,
      "TATTTTTG": 7852,
      "TTGCTTC": 7853,
      "TGGAGCCC": 7854,
      "physicalĠ": 7855,
      "nit": 7856,
      "room": 7857,
      "TCTCTTTC": 7858,
      "AGTGTTG": 7859,
      "guestĠ": 7860,
      "vocalsĠ": 7861,
      "TTAGTAG": 7862,
      "scoringĠ": 7863,
      "TGCATTC": 7864,
      "politic": 7865,
      "phi": 7866,
      "objec": 7867,
      "loadĠ": 7868,
      "HarrisonĠ": 7869,
      "sent": 7870,
      "ACTTGCC": 7871,
      "AGTTCG": 7872,
      "lic": 7873,
      "TTTAAAAG": 7874,
      "udĠ": 7875,
      "inĠ(Ġ": 7876,
      "Ã¨": 7877,
      "TCACCTC": 7878,
      "AGGAGTTTG": 7879,
      "AssociationĠ": 7880,
      "15Ġ,Ġ": 7881,
      "farm": 7882,
      "TCCCATTC": 7883,
      "AGGTAAG": 7884,
      "capitalĠ": 7885,
      "typeĠ": 7886,
      "TTCTCAG": 7887,
      "TGCCGC": 7888,
      "feelĠ": 7889,
      "care": 7890,
      ",ĠandĠwasĠ": 7891,
      "TTAAATAA": 7892,
      "AGTCTTGCTCTG": 7893,
      "PolishĠ": 7894,
      "TATTAAC": 7895,
      "elimin": 7896,
      "TATAGCC": 7897,
      "TGTCTTCC": 7898,
      "portsĠ": 7899,
      "bey": 7900,
      "AGTTTTGC": 7901,
      "adel": 7902,
      "consecu": 7903,
      "singerĠ": 7904,
      "YoungĠ": 7905,
      "manufac": 7906,
      "ATTATGG": 7907,
      "ATTAAGC": 7908,
      "thu": 7909,
      "SunĠ": 7910,
      "OxfordĠ": 7911,
      "ofĠK": 7912,
      "TGAAATAA": 7913,
      "Sil": 7914,
      "developĠ": 7915,
      "RecordsĠ": 7916,
      "Dre": 7917,
      "Hon": 7918,
      "XĠ@-@Ġ": 7919,
      "lem": 7920,
      "TGGTTCC": 7921,
      "AGAAATGC": 7922,
      "Ġ,ĠwhoĠ": 7923,
      "SouthernĠ": 7924,
      "experim": 7925,
      "architec": 7926,
      "TTGAATC": 7927,
      "predic": 7928,
      "TTAGGCC": 7929,
      "GGCGG": 7930,
      "ActĠ": 7931,
      "GGCTGC": 7932,
      "postĠ@-@Ġ": 7933,
      "TTTCAAAA": 7934,
      "AAAGAAAAG": 7935,
      "modi": 7936,
      "%ĠofĠ": 7937,
      "medicalĠ": 7938,
      "but": 7939,
      "istr": 7940,
      "assaul": 7941,
      "Cr": 7942,
      "orĠ\"Ġ": 7943,
      "trueĠ": 7944,
      "AATAGGC": 7945,
      "TGACCTTG": 7946,
      "bom": 7947,
      "ATTTAAAA": 7948,
      "TTCTTTCC": 7949,
      "onc": 7950,
      "stag": 7951,
      "ATCCTGC": 7952,
      "TGTCTTTT": 7953,
      "inghamĠ": 7954,
      "passingĠ": 7955,
      "travelĠ": 7956,
      "AGGGGGG": 7957,
      "allĠ@-@Ġ": 7958,
      "marineĠ": 7959,
      "herselfĠ": 7960,
      "Columb": 7961,
      "LatinĠ": 7962,
      "TTTTCG": 7963,
      "gianĠ": 7964,
      "AGGTGATC": 7965,
      "aniĠ": 7966,
      "TGGATGC": 7967,
      "stoodĠ": 7968,
      "TCCCTAG": 7969,
      "AGTGTGC": 7970,
      "ParliamentĠ": 7971,
      "praisedĠtheĠ": 7972,
      "BackgroundĠ": 7973,
      "AAGTCTC": 7974,
      "cultureĠ": 7975,
      "grand": 7976,
      "TTGTTCC": 7977,
      "TTTCATAG": 7978,
      "ATTCAGC": 7979,
      "TTTAAAAC": 7980,
      "sisterĠ": 7981,
      "fishĠ": 7982,
      "TCTGTCC": 7983,
      "offensiveĠ": 7984,
      "wasĠbornĠ": 7985,
      "AATCGC": 7986,
      "ĠAc": 7987,
      "triedĠtoĠ": 7988,
      "fastĠ": 7989,
      "ricalĠ": 7990,
      "emblyĠ": 7991,
      "TGGTTTTG": 7992,
      "hadĠnotĠ": 7993,
      "Histor": 7994,
      "icientĠ": 7995,
      "West": 7996,
      "inĠ'sĠ": 7997,
      "\"ĠT": 7998,
      "AATAGGG": 7999,
      "pap": 8000,
      "saysĠ": 8001,
      "lu": 8002,
      "TTGAAGG": 8003,
      "TATGGGG": 8004,
      "ACAATGC": 8005,
      "tropicalĠstormĠ": 8006,
      "14Ġ,Ġ": 8007,
      "Ven": 8008,
      "supp": 8009,
      "9Ġ@.@Ġ": 8010,
      "ACATATC": 8011,
      "shir": 8012,
      "IĠ'mĠ": 8013,
      "150Ġ": 8014,
      "itableĠ": 8015,
      "tyĠ@-@Ġ": 8016,
      "ofĠR": 8017,
      "footĠ": 8018,
      "TTACATG": 8019,
      "constitu": 8020,
      "AATTATG": 8021,
      ".ĠButĠ": 8022,
      "lesĠ,Ġ": 8023,
      "TAGACAC": 8024,
      "onĠitsĠ": 8025,
      "TATGTTTT": 8026,
      "TCCCGCC": 8027,
      "ATATACAC": 8028,
      "resc": 8029,
      "firstĠ@-@Ġ": 8030,
      "jobĠ": 8031,
      "heardĠ": 8032,
      "chosenĠ": 8033,
      "tonĠ,Ġ": 8034,
      ",ĠandĠaĠ": 8035,
      "scaleĠ": 8036,
      "ĠDuringĠtheĠ": 8037,
      "onĠNovemberĠ": 8038,
      "universityĠ": 8039,
      "ACACCCC": 8040,
      "ATTAATC": 8041,
      "AGGCTCC": 8042,
      "ACAGTAA": 8043,
      "AAATAGAA": 8044,
      "3Ġ@,@Ġ": 8045,
      "becomesĠ": 8046,
      "clusionĠ": 8047,
      "TATAGAC": 8048,
      "consecutiveĠ": 8049,
      "40": 8050,
      "AATGAAAA": 8051,
      "AATTATC": 8052,
      "deriv": 8053,
      "artilleryĠ": 8054,
      "AGGCAAC": 8055,
      "ATTCTTTC": 8056,
      "TCACGG": 8057,
      "evelop": 8058,
      "Direc": 8059,
      "burg": 8060,
      "12Ġ,Ġ": 8061,
      ".Ġ,Ġ": 8062,
      "AGTGTAA": 8063,
      "containsĠ": 8064,
      "ve": 8065,
      "Ã¤": 8066,
      "instruc": 8067,
      "deepĠ": 8068,
      "7ĠâĢĵĠ": 8069,
      "leaderĠ": 8070,
      "majorityĠ": 8071,
      "TACAGCC": 8072,
      "step": 8073,
      "counter": 8074,
      "Vol": 8075,
      "TAAGCCC": 8076,
      "AAATATAC": 8077,
      "blueĠ": 8078,
      "ATTCAACTCACAGAG": 8079,
      "ĠJ": 8080,
      "ACCCTCC": 8081,
      "eĠ,ĠandĠtheĠ": 8082,
      "TCAGAGC": 8083,
      "ifĠtheĠ": 8084,
      "TTAATTTC": 8085,
      "Que": 8086,
      "TGTACCC": 8087,
      "emphas": 8088,
      "becomingĠ": 8089,
      "2016Ġ": 8090,
      "Instit": 8091,
      "Pennsylvan": 8092,
      "railwayĠ": 8093,
      "ficĠ": 8094,
      "TTCTAGC": 8095,
      "offer": 8096,
      "studentĠ": 8097,
      "Sur": 8098,
      "ATAGGGG": 8099,
      "DonĠ": 8100,
      "edĠwithĠaĠ": 8101,
      "TATACATT": 8102,
      "assign": 8103,
      "mayĠhaveĠ": 8104,
      "AGAGTGAG": 8105,
      "TGCCACC": 8106,
      "parentsĠ": 8107,
      "ationsĠandĠ": 8108,
      "sexĠ": 8109,
      "TCTCTTTT": 8110,
      "TATAAATG": 8111,
      "tedĠtoĠtheĠ": 8112,
      ".ĠSeveralĠ": 8113,
      "secondsĠ": 8114,
      "saidĠ,Ġ\"Ġ": 8115,
      "arc": 8116,
      "TCTCAGCC": 8117,
      "frequentlyĠ": 8118,
      "retain": 8119,
      "leyĠ,Ġ": 8120,
      "thĠcenturyĠ,Ġ": 8121,
      "andĠitsĠ": 8122,
      "promp": 8123,
      ",ĠwhichĠwasĠ": 8124,
      "possiblyĠ": 8125,
      "Mass": 8126,
      "reasonĠ": 8127,
      "wereĠnotĠ": 8128,
      ".Ġ\"ĠInĠ": 8129,
      "GTTTT": 8130,
      "isĠnowĠ": 8131,
      "Ġ=Ġ=ĠHistoryĠ=Ġ=ĠĊ": 8132,
      "Ben": 8133,
      "TAGAAGG": 8134,
      "TATAGTC": 8135,
      "AGCCTGGG": 8136,
      "AGACACC": 8137,
      "AAAAGTAA": 8138,
      "antineĠ": 8139,
      "announcedĠthatĠ": 8140,
      "WĠ": 8141,
      "atedĠinĠtheĠ": 8142,
      "returnĠtoĠ": 8143,
      "supplyĠ": 8144,
      "roman": 8145,
      "TGATAGC": 8146,
      "AGGAAAAC": 8147,
      "AATGTAC": 8148,
      "FrankĠ": 8149,
      "AGGTTCC": 8150,
      "AGACAGC": 8151,
      "changesĠ": 8152,
      "historianĠ": 8153,
      "ATTTTTAC": 8154,
      "TTGGTGC": 8155,
      "acherĠ": 8156,
      "TCTGTTTT": 8157,
      "editionĠ": 8158,
      "AGTATGC": 8159,
      "alizedĠ": 8160,
      "TATTTTCC": 8161,
      "requi": 8162,
      "typicallyĠ": 8163,
      "AGGTCAGGAGATCG": 8164,
      "simp": 8165,
      "pra": 8166,
      "amedĠ": 8167,
      "overĠaĠ": 8168,
      "deep": 8169,
      "Far": 8170,
      "cen": 8171,
      "uelĠ": 8172,
      "TCTGTTC": 8173,
      "surround": 8174,
      "ACAACCC": 8175,
      "backgroundĠ": 8176,
      "newlyĠ": 8177,
      "simplyĠ": 8178,
      "TCAAGGG": 8179,
      "AGCTGAC": 8180,
      "AGGGAAAA": 8181,
      "TGGCTTC": 8182,
      "adver": 8183,
      "AATCTCC": 8184,
      "collap": 8185,
      "BĠ@-@Ġ": 8186,
      "TGAATCC": 8187,
      "songĠ\"Ġ": 8188,
      "GreenĠ": 8189,
      "RepublicĠ": 8190,
      "GamesĠ": 8191,
      "eĠ.ĠĊ": 8192,
      "ATACATAC": 8193,
      "ACAGACAC": 8194,
      "ATAAAAGC": 8195,
      "inchesĠ(Ġ": 8196,
      "mmĠ(Ġ": 8197,
      "AGGTAAC": 8198,
      "house": 8199,
      "beatĠ": 8200,
      "apol": 8201,
      "crimin": 8202,
      "AGCGAGAC": 8203,
      "northeastĠ": 8204,
      "TCTCGAACTCC": 8205,
      "settingĠ": 8206,
      "MichiganĠ": 8207,
      "gent": 8208,
      "AGAGACAC": 8209,
      "AACCAAG": 8210,
      "parall": 8211,
      "crip": 8212,
      "similarĠtoĠ": 8213,
      "problemĠ": 8214,
      "GTTTC": 8215,
      "ATATTTTC": 8216,
      "formĠofĠ": 8217,
      ".ĠWhenĠtheĠ": 8218,
      "pas": 8219,
      ",ĠitĠ": 8220,
      "performĠ": 8221,
      "subjectĠ": 8222,
      "TTATCAC": 8223,
      "AGCCGGG": 8224,
      "ScottishĠ": 8225,
      "qĠ": 8226,
      "town": 8227,
      "TAGCTGG": 8228,
      "TGAGGCAGGAGAA": 8229,
      "symp": 8230,
      "inĠK": 8231,
      "TTACACC": 8232,
      "ricul": 8233,
      "16Ġ,Ġ": 8234,
      "AGATTAC": 8235,
      "ATAGGAG": 8236,
      "TTAATGC": 8237,
      "TAAAATAC": 8238,
      "loy": 8239,
      "AGTGGAG": 8240,
      "TTTGTCC": 8241,
      "TCCCAAAGTGCTGGGATTACAGGCATGAGCC": 8242,
      "ATTTTTAG": 8243,
      "tionsĠandĠ": 8244,
      "8Ġ@.@Ġ": 8245,
      "bigĠ": 8246,
      "ATTCTCCTGCCTCAGCCTCCCGAG": 8247,
      "Christi": 8248,
      "Som": 8249,
      "yĠwasĠ": 8250,
      "TGGCTAATTTT": 8251,
      "5ĠâĢĵĠ": 8252,
      "tureĠ,Ġ": 8253,
      "AGACCAC": 8254,
      "driveĠ": 8255,
      "WW": 8256,
      "eĠaĠ": 8257,
      "eroĠ": 8258,
      "TAAAAAG": 8259,
      "TCCCATC": 8260,
      "Star": 8261,
      "Recep": 8262,
      "EasternĠ": 8263,
      "ACATAAC": 8264,
      "TTTCATG": 8265,
      "notĠtoĠ": 8266,
      "manĠ'sĠ": 8267,
      "landingĠ": 8268,
      "lec": 8269,
      "TTGGAAC": 8270,
      "esĠ,ĠbutĠ": 8271,
      "slowĠ": 8272,
      "Win": 8273,
      "sĠ,ĠwithĠ": 8274,
      "damagedĠ": 8275,
      "DutchĠ": 8276,
      "TCTCAAACTCC": 8277,
      "TTAATTC": 8278,
      "AGTCTTG": 8279,
      "referenceĠ": 8280,
      "annelĠ": 8281,
      "negativeĠ": 8282,
      "engine": 8283,
      "JosephĠ": 8284,
      "norĠ": 8285,
      "TCTGGAG": 8286,
      "rein": 8287,
      "TCCCTCTC": 8288,
      "thatĠaĠ": 8289,
      "oughlyĠ": 8290,
      "ACAATAG": 8291,
      "TCAGGAGGC": 8292,
      "kaĠ": 8293,
      "ATACTTG": 8294,
      "evacu": 8295,
      "GGCCG": 8296,
      "AGGCTGGAGTGCAATGGC": 8297,
      "death": 8298,
      "ACATCCC": 8299,
      "AAGTGAC": 8300,
      "TACTTCC": 8301,
      "AATGTGG": 8302,
      "descrip": 8303,
      "asĠwellĠasĠtheĠ": 8304,
      "TATTGGG": 8305,
      "TATCTCC": 8306,
      "TTATTTTG": 8307,
      "match": 8308,
      "musicĠvideoĠ": 8309,
      "authorityĠ": 8310,
      "ppingĠ": 8311,
      "Swed": 8312,
      "+Ġ": 8313,
      "HurricaneĠ": 8314,
      "kl": 8315,
      "nativeĠ": 8316,
      "conserv": 8317,
      "atedĠinĠ": 8318,
      "2008Ġ,Ġ": 8319,
      "AGATCACC": 8320,
      "oppon": 8321,
      "CatholicĠ": 8322,
      "tingĠtoĠ": 8323,
      "puterĠ": 8324,
      "debutedĠ": 8325,
      "TATGCCC": 8326,
      "assum": 8327,
      "TTAAAGC": 8328,
      "budg": 8329,
      "attribu": 8330,
      "wouldĠnotĠ": 8331,
      "ManchesterĠ": 8332,
      "TCACCAC": 8333,
      "AGGTGTC": 8334,
      "andĠotherĠ": 8335,
      "AGCCAAC": 8336,
      "TGTGTTC": 8337,
      "18Ġ,Ġ": 8338,
      "soldiersĠ": 8339,
      "horseĠ": 8340,
      "1Ġ,ĠtheĠ": 8341,
      "Fam": 8342,
      "Hear": 8343,
      "TGAATGG": 8344,
      "TGAGTTC": 8345,
      "seniorĠ": 8346,
      "attrac": 8347,
      "GCTCC": 8348,
      "spon": 8349,
      "refusedĠtoĠ": 8350,
      "formsĠ": 8351,
      ".ĠLaterĠ": 8352,
      "AAATATCTTCG": 8353,
      "RegimentĠ": 8354,
      "ATTATATT": 8355,
      "ATTTTCTC": 8356,
      "AGGAAATG": 8357,
      "ATATATTC": 8358,
      "ACAATAGC": 8359,
      "expand": 8360,
      "albumĠ'sĠ": 8361,
      "My": 8362,
      "PostĠ": 8363,
      "AATTGGG": 8364,
      "streetĠ": 8365,
      "itationĠ": 8366,
      "AGTCTCACTCTG": 8367,
      "givingĠ": 8368,
      "educationĠ": 8369,
      "AGTATCC": 8370,
      "AAGATGC": 8371,
      "TCTGAAC": 8372,
      "diam": 8373,
      "meansĠ": 8374,
      "famousĠ": 8375,
      "TTAGGGC": 8376,
      "andĠT": 8377,
      "ACGTGC": 8378,
      "victor": 8379,
      "(Ġ\"Ġ": 8380,
      "halfĠ@-@Ġ": 8381,
      "FantasyĠ": 8382,
      "eiv": 8383,
      "brokenĠ": 8384,
      "impactĠ": 8385,
      "AAAAGAAAC": 8386,
      "AATAAAAC": 8387,
      "grewĠ": 8388,
      "GGGAGGC": 8389,
      "edg": 8390,
      "criticiz": 8391,
      "scriptĠ": 8392,
      "aloneĠ": 8393,
      "TCAGAAAA": 8394,
      "ĠAlthoughĠ": 8395,
      "AGGATCC": 8396,
      "TTGGTCAGGCTGG": 8397,
      "wereĠalsoĠ": 8398,
      "throughĠaĠ": 8399,
      "draftĠ": 8400,
      "ooĠ": 8401,
      "GGAAC": 8402,
      "foundĠinĠ": 8403,
      "distanceĠ": 8404,
      "societyĠ": 8405,
      "TGTGGAG": 8406,
      "tsĠ(Ġ": 8407,
      "mosph": 8408,
      "beyondĠ": 8409,
      "Mul": 8410,
      "Wom": 8411,
      "ATTAAATT": 8412,
      "toĠR": 8413,
      "oppositionĠ": 8414,
      "itĠ\"Ġ": 8415,
      "workĠ,Ġ": 8416,
      "severeĠ": 8417,
      "contrastĠ": 8418,
      "isi": 8419,
      "applic": 8420,
      "sĠ,ĠandĠtheĠ": 8421,
      ".ĠThisĠwasĠ": 8422,
      "officialsĠ": 8423,
      "historicalĠ": 8424,
      "Gil": 8425,
      "TTACCCC": 8426,
      "ACCAAAC": 8427,
      "intellig": 8428,
      "yĠ\"Ġ": 8429,
      "AGGGTGC": 8430,
      "managementĠ": 8431,
      "mention": 8432,
      "gain": 8433,
      "esĠonĠ": 8434,
      "TGGCATG": 8435,
      "Den": 8436,
      "ofĠtheseĠ": 8437,
      "Elizabe": 8438,
      "ACTACAGGC": 8439,
      ")Ġ,ĠaĠ": 8440,
      "TCTCGATCTCCTGACCTC": 8441,
      "toĠtakeĠ": 8442,
      "rain": 8443,
      "attach": 8444,
      "inĠ190": 8445,
      "yearĠ@-@ĠoldĠ": 8446,
      "doll": 8447,
      "TCATATC": 8448,
      "TATTTCTC": 8449,
      "atom": 8450,
      "TGGCCG": 8451,
      "specific": 8452,
      "AAGTAAC": 8453,
      "TATCTTC": 8454,
      "AGTCTGG": 8455,
      "meet": 8456,
      "sixthĠ": 8457,
      "FootballĠ": 8458,
      "@-@ĠinchĠ": 8459,
      "2007Ġ,Ġ": 8460,
      "Wel": 8461,
      "aid": 8462,
      "brig": 8463,
      "2014Ġ,Ġ": 8464,
      "AATAAAAAA": 8465,
      "correc": 8466,
      "AAAGAAGC": 8467,
      "stopp": 8468,
      "birdsĠ": 8469,
      "ywoodĠ": 8470,
      "AGAATCC": 8471,
      "machineĠ": 8472,
      "AAGACCC": 8473,
      "TTGGAGG": 8474,
      "ATCCTCC": 8475,
      "timeĠofĠ": 8476,
      "11Ġ,Ġ": 8477,
      "tedĠbyĠtheĠ": 8478,
      "Black": 8479,
      "legĠ": 8480,
      "pay": 8481,
      "civilĠ": 8482,
      "cityĠofĠ": 8483,
      "erlyĠ": 8484,
      "AAGAGGG": 8485,
      "tomĠ": 8486,
      "mindĠ": 8487,
      "AvenueĠ": 8488,
      "ATGGTAA": 8489,
      "AAGCAAC": 8490,
      "TTACAAC": 8491,
      "sexualĠ": 8492,
      "cell": 8493,
      "venĠ": 8494,
      "ACTGTGCC": 8495,
      "AAATACAC": 8496,
      "edomĠ": 8497,
      "surren": 8498,
      "ChristmasĠ": 8499,
      "husbandĠ": 8500,
      "LineĠ": 8501,
      "cut": 8502,
      "cmĠ(Ġ": 8503,
      "TGTGGTGG": 8504,
      "merg": 8505,
      "Blu": 8506,
      "HĠ": 8507,
      "TropicalĠ": 8508,
      "ideasĠ": 8509,
      "ampionĠ": 8510,
      "SeriesĠ": 8511,
      "tournamentĠ": 8512,
      "5Ġ,ĠtheĠ": 8513,
      "red": 8514,
      "duringĠaĠ": 8515,
      "drum": 8516,
      "will": 8517,
      "ACATGGG": 8518,
      "receiveĠ": 8519,
      "ACCAAGG": 8520,
      "ParisĠ": 8521,
      "billionĠ": 8522,
      "usĠandĠ": 8523,
      "vonĠ": 8524,
      "AAGAACC": 8525,
      "TGACTGC": 8526,
      "NewĠYorkĠCityĠ": 8527,
      "AlliedĠ": 8528,
      "bedĠ": 8529,
      "ATTAACC": 8530,
      "8ĠâĢĵĠ": 8531,
      "AmericansĠ": 8532,
      "ĠFollow": 8533,
      "handsĠ": 8534,
      "AGCGGC": 8535,
      "TCACGC": 8536,
      "AGTTTTCC": 8537,
      "TCATAGC": 8538,
      "ardi": 8539,
      "styl": 8540,
      "urtherĠ": 8541,
      "9ĠâĢĵĠ": 8542,
      "basisĠ": 8543,
      "whereĠitĠ": 8544,
      "equipmentĠ": 8545,
      "ACTTAAC": 8546,
      "becauseĠtheĠ": 8547,
      "AGTGATG": 8548,
      "intersec": 8549,
      "TTGATTC": 8550,
      "JimĠ": 8551,
      "toĠplayĠ": 8552,
      "1Ġ@,@Ġ000Ġ": 8553,
      "brieflyĠ": 8554,
      "Cur": 8555,
      "datedĠ": 8556,
      "AAGTGGC": 8557,
      "AATCTAA": 8558,
      "perman": 8559,
      "esĠ,ĠwhichĠ": 8560,
      "TGACCAACATGG": 8561,
      "designedĠ": 8562,
      "ACAAGCC": 8563,
      "sayingĠ": 8564,
      "AAAACCCC": 8565,
      "AGCGCC": 8566,
      "TATGTATG": 8567,
      "mission": 8568,
      "judg": 8569,
      "Cra": 8570,
      "Cub": 8571,
      "TTTGATG": 8572,
      "ATAGCCC": 8573,
      "circul": 8574,
      "villageĠ": 8575,
      "gard": 8576,
      "ãĤ": 8577,
      "GGTGG": 8578,
      "ardingĠ": 8579,
      "TGTGTGTGTGTG": 8580,
      "publishedĠinĠ": 8581,
      "AATCATG": 8582,
      "writersĠ": 8583,
      "squadronĠ": 8584,
      "800Ġ": 8585,
      "Jon": 8586,
      "TCTCACC": 8587,
      "ATGCTAC": 8588,
      "bound": 8589,
      "waveĠ": 8590,
      "ansĠandĠ": 8591,
      "TCCCAGAG": 8592,
      "ACAATAC": 8593,
      "animalsĠ": 8594,
      "aun": 8595,
      "TGAGTGC": 8596,
      "USĠ$Ġ": 8597,
      "expansionĠ": 8598,
      "TATAGAG": 8599,
      "ACCCGC": 8600,
      "ATGCAAAA": 8601,
      "clo": 8602,
      "milli": 8603,
      "TCCACCTCC": 8604,
      "TTGAATG": 8605,
      "ValleyĠ": 8606,
      "jus": 8607,
      "TATTTTATT": 8608,
      "amountĠofĠ": 8609,
      "Gard": 8610,
      "TATTTTAC": 8611,
      "oss": 8612,
      "AAATTTAC": 8613,
      "gasĠ": 8614,
      "AGAAATAC": 8615,
      "TGAGAGG": 8616,
      "seatĠ": 8617,
      "suchĠaĠ": 8618,
      "Rock": 8619,
      "TATTGGC": 8620,
      "forĠanĠ": 8621,
      "sport": 8622,
      "ATATTTGGATAGC": 8623,
      "measur": 8624,
      "ATGGATG": 8625,
      "olfĠ": 8626,
      "noĠlongerĠ": 8627,
      "rorĠ": 8628,
      "TAACTGC": 8629,
      "ledg": 8630,
      "edĠ,Ġ\"Ġ": 8631,
      "leftĠtheĠ": 8632,
      "Jes": 8633,
      "ACAAGGC": 8634,
      "priseĠ": 8635,
      "chargeĠ": 8636,
      "centreĠ": 8637,
      "donĠ'tĠ": 8638,
      "inĠ17": 8639,
      "convinc": 8640,
      "AGAGAAGC": 8641,
      "AAGAAAAC": 8642,
      "championshipĠ": 8643,
      "ACAGAGG": 8644,
      "AAATATTG": 8645,
      "AAGAAAAG": 8646,
      ".ĠThereĠareĠ": 8647,
      "TCACTCC": 8648,
      "enterĠ": 8649,
      "spr": 8650,
      "2Ġ,ĠtheĠ": 8651,
      "Mod": 8652,
      "TCCCTTC": 8653,
      "chur": 8654,
      "TTAGTAA": 8655,
      "astr": 8656,
      "bin": 8657,
      "AGGCAGGG": 8658,
      "acĠ": 8659,
      "AGACTTC": 8660,
      "TGCCTGGC": 8661,
      "ACCCCG": 8662,
      "atis": 8663,
      "hasĠalsoĠ": 8664,
      "starsĠ": 8665,
      "VictoriaĠ": 8666,
      "BrigadeĠ": 8667,
      "soundtrackĠ": 8668,
      "CivilĠ": 8669,
      "AGAGAGGG": 8670,
      "caughtĠ": 8671,
      "ATAAAAACTAG": 8672,
      "AfricaĠ": 8673,
      "exceptĠ": 8674,
      "nuclearĠ": 8675,
      "adedĠ": 8676,
      "TTAGCCC": 8677,
      "AR": 8678,
      "TTAGGAG": 8679,
      "AAGATTC": 8680,
      "TCCCAGCC": 8681,
      "OperationĠ": 8682,
      "killĠ": 8683,
      "ACTTTAG": 8684,
      "AATGTAG": 8685,
      "lyingĠ": 8686,
      "connectedĠ": 8687,
      "sĠ,ĠwhoĠ": 8688,
      "AAATTTAA": 8689,
      "idlyĠ": 8690,
      "ATCACTG": 8691,
      "restric": 8692,
      "Tro": 8693,
      "ATCATAC": 8694,
      "Colleg": 8695,
      "tap": 8696,
      "ATAAATAC": 8697,
      "TTTTCTAG": 8698,
      "deploy": 8699,
      "17Ġ,Ġ": 8700,
      "IrelandĠ": 8701,
      "ATTATTTC": 8702,
      "TGCCAGC": 8703,
      "simul": 8704,
      "agn": 8705,
      "resultsĠ": 8706,
      "residentsĠ": 8707,
      "patter": 8708,
      "northwestĠ": 8709,
      "difficultĠ": 8710,
      "AirĠForceĠ": 8711,
      "AACTTAC": 8712,
      "quarterĠ": 8713,
      "kmĠ/ĠhĠ)Ġ": 8714,
      "TCCCTTCC": 8715,
      "BridgeĠ": 8716,
      "practic": 8717,
      "HomeĠ": 8718,
      "AAAATATG": 8719,
      "defend": 8720,
      "recogniz": 8721,
      "gn": 8722,
      "tleĠ": 8723,
      "TCCAAGG": 8724,
      "seriousĠ": 8725,
      "colum": 8726,
      "TTGTTGC": 8727,
      "TCTCTGG": 8728,
      "ATGGTATT": 8729,
      "TGCCTGG": 8730,
      "dram": 8731,
      "summ": 8732,
      "growingĠ": 8733,
      "Lab": 8734,
      "TATCTAA": 8735,
      "sportsĠ": 8736,
      "urbanĠ": 8737,
      "Rhod": 8738,
      "oz": 8739,
      "ATAACCC": 8740,
      ",ĠbutĠtheĠ": 8741,
      "TTTTTTTTTTTTTTTTTTTT": 8742,
      "threatĠ": 8743,
      "Green": 8744,
      "oneĠofĠtheĠmostĠ": 8745,
      "intendedĠtoĠ": 8746,
      "twelveĠ": 8747,
      "rainfallĠ": 8748,
      "engeĠ": 8749,
      "TTTTCTAA": 8750,
      "outsideĠ": 8751,
      "lookingĠ": 8752,
      "eousĠ": 8753,
      "mic": 8754,
      "ATACACACAC": 8755,
      "ival": 8756,
      "Isra": 8757,
      "AAACTGG": 8758,
      "AGACATG": 8759,
      "girlĠ": 8760,
      "GCAAC": 8761,
      "onĠJuneĠ": 8762,
      "Ann": 8763,
      "ACCTGAC": 8764,
      "TCTCTAC": 8765,
      "ACTCAGC": 8766,
      "TTGGGAGGCTGAGGC": 8767,
      "areaĠofĠ": 8768,
      "explor": 8769,
      "sĠwithĠ": 8770,
      "eĠ,ĠheĠ": 8771,
      "Mont": 8772,
      ".ĠBecaus": 8773,
      "toĠbeĠaĠ": 8774,
      "extensiveĠ": 8775,
      "franch": 8776,
      "ACCCAGG": 8777,
      "consol": 8778,
      "artmentĠ": 8779,
      "adelphi": 8780,
      "Rog": 8781,
      "esĠ'Ġ": 8782,
      "TTGGGTG": 8783,
      "TCTCTAA": 8784,
      "AAACATG": 8785,
      "ettĠ": 8786,
      "UnitedĠStatesĠ,Ġ": 8787,
      "TATTTATTTATTTATT": 8788,
      "eanwhil": 8789,
      "manufactur": 8790,
      "gros": 8791,
      "ACCTTTG": 8792,
      "TATATTTC": 8793,
      "connec": 8794,
      "TTGAGGC": 8795,
      "ilianĠ": 8796,
      "ATGCGG": 8797,
      "spreadĠ": 8798,
      "TGGGTTC": 8799,
      "TCAGTGG": 8800,
      "Cas": 8801,
      "Hum": 8802,
      "TCATAAC": 8803,
      "ATGCTAG": 8804,
      "TTAACCC": 8805,
      "TATCTAC": 8806,
      "AGTCTTGC": 8807,
      "ATAGTAC": 8808,
      "resultedĠ": 8809,
      "76Ġ": 8810,
      "BillĠ": 8811,
      "AAGTTAC": 8812,
      "ATAATTTC": 8813,
      "ATGGAAAA": 8814,
      "TGTTAAC": 8815,
      "theyĠhadĠ": 8816,
      "TCCAAGC": 8817,
      "TGAGTAG": 8818,
      "recentlyĠ": 8819,
      "ranceĠ": 8820,
      "reyĠ": 8821,
      "academ": 8822,
      "TAAGTAC": 8823,
      "recall": 8824,
      "skyĠ": 8825,
      "ACCTACC": 8826,
      "wasĠbuiltĠ": 8827,
      "pleas": 8828,
      "usingĠtheĠ": 8829,
      "TGAGTAA": 8830,
      "ATTTTAAC": 8831,
      "gainĠ": 8832,
      "officerĠ": 8833,
      "TTCCAGG": 8834,
      "TGAGAAAA": 8835,
      "RepublicanĠ": 8836,
      "SaintĠ": 8837,
      "AGAATGGC": 8838,
      "ACGTGCC": 8839,
      "injuryĠ": 8840,
      "AGAATTTC": 8841,
      "AGCCGG": 8842,
      "TCTTAAC": 8843,
      "enteredĠtheĠ": 8844,
      "adj": 8845,
      "TAGCTAC": 8846,
      "20Ġ,Ġ": 8847,
      "ronic": 8848,
      "andĠ@-@Ġ": 8849,
      "AATTTGCAAG": 8850,
      "AGTAGGG": 8851,
      "madeĠtheĠ": 8852,
      "TTAGGGG": 8853,
      "TTTCCCCC": 8854,
      "seriesĠ,Ġ": 8855,
      "tryingĠtoĠ": 8856,
      "Spr": 8857,
      "natureĠ": 8858,
      "Law": 8859,
      "lad": 8860,
      "TCTACCC": 8861,
      "ACTGTAG": 8862,
      "watch": 8863,
      "Pu": 8864,
      "UK": 8865,
      "ancientĠ": 8866,
      "teach": 8867,
      "wr": 8868,
      "andĠisĠ": 8869,
      "ATAAAGG": 8870,
      "ATACAGC": 8871,
      "ATTAATAA": 8872,
      "TTGTGCC": 8873,
      "andĠD": 8874,
      "13Ġ,Ġ": 8875,
      "Lar": 8876,
      "CommissionĠ": 8877,
      "domes": 8878,
      "beginsĠ": 8879,
      "foughtĠ": 8880,
      "ACCACACCTGGC": 8881,
      "flagĠ": 8882,
      "quarter": 8883,
      "Boo": 8884,
      "bad": 8885,
      "ATTAGTG": 8886,
      "TTTTTAAC": 8887,
      "reachĠ": 8888,
      "TGGGTAG": 8889,
      "battalionĠ": 8890,
      "SpainĠ": 8891,
      "TCCTAAG": 8892,
      "ATCTAAC": 8893,
      "ATTGAAAA": 8894,
      "forĠtheĠfirstĠtimeĠ": 8895,
      "inĠSeptemberĠ": 8896,
      "GGGCG": 8897,
      "filmĠ,Ġ": 8898,
      "onaĠ": 8899,
      "liĠ": 8900,
      "speedĠ": 8901,
      "4Ġ,ĠtheĠ": 8902,
      "ACCTTGC": 8903,
      "ATCGTGCC": 8904,
      "AGGGGTG": 8905,
      "veĠtheĠ": 8906,
      "mob": 8907,
      "AGACAAGG": 8908,
      "findsĠ": 8909,
      "producedĠbyĠ": 8910,
      "54Ġ": 8911,
      "commonlyĠ": 8912,
      "TCTAAGC": 8913,
      "OceanĠ": 8914,
      "AAGTGAA": 8915,
      "AGACAAAA": 8916,
      "episodeĠ,Ġ": 8917,
      "tol": 8918,
      "TCGGGG": 8919,
      "TATTTCTCC": 8920,
      "anĠin": 8921,
      "downĠtheĠ": 8922,
      "ynĠ": 8923,
      "hadĠtheĠ": 8924,
      "normalĠ": 8925,
      "52Ġ": 8926,
      "ATTAAGG": 8927,
      "AACCTCTGCC": 8928,
      "TCAGAGG": 8929,
      "incol": 8930,
      "capit": 8931,
      "igĠ": 8932,
      "unknownĠ": 8933,
      "ownedĠ": 8934,
      "featuringĠ": 8935,
      "ATCTAGG": 8936,
      "stayĠ": 8937,
      "AGCTACC": 8938,
      "asĠpartĠofĠ": 8939,
      "versi": 8940,
      "\"Ġ,ĠwhichĠ": 8941,
      "trialĠ": 8942,
      "OnĠ": 8943,
      "AACAACC": 8944,
      "premeĠ": 8945,
      "ACCGCC": 8946,
      "reserv": 8947,
      "TTGGCCTCCCAAAGTGC": 8948,
      "TCCAAAC": 8949,
      "inĠOctoberĠ": 8950,
      "TTGGTTG": 8951,
      "hisĠfatherĠ": 8952,
      "whereĠtheyĠ": 8953,
      "figureĠ": 8954,
      "Jud": 8955,
      "namĠ": 8956,
      "ATTAAATG": 8957,
      "TTTTTGTAG": 8958,
      "entirelyĠ": 8959,
      "TCAAGCAATCC": 8960,
      "ATCACTTGAGGTCAGGAG": 8961,
      "Philadelphi": 8962,
      ".C": 8963,
      "Radi": 8964,
      "odsĠ": 8965,
      "ATTTTTGC": 8966,
      ")Ġ=ĠĊ": 8967,
      "planetĠ": 8968,
      "Ottom": 8969,
      "dsĠ,Ġ": 8970,
      "fellowĠ": 8971,
      "ikeĠ": 8972,
      "mut": 8973,
      "thor": 8974,
      "ACCAGTG": 8975,
      "ATCAGGC": 8976,
      "TATCTTG": 8977,
      "Mary": 8978,
      "someĠofĠ": 8979,
      "ungĠ": 8980,
      "ATATTTAC": 8981,
      "Jam": 8982,
      "TTCATTTC": 8983,
      "ATGCTAA": 8984,
      "3Ġ,ĠtheĠ": 8985,
      "Ã¸": 8986,
      "AGCTGAA": 8987,
      "@-@ĠyardĠ": 8988,
      "eau": 8989,
      "inningsĠ": 8990,
      "mig": 8991,
      "ingĠwithĠ": 8992,
      "illyĠ": 8993,
      "essionsĠ": 8994,
      "disp": 8995,
      "wentĠonĠtoĠ": 8996,
      "56Ġ": 8997,
      "cab": 8998,
      "ATGAGAAC": 8999,
      "stay": 9000,
      "Comman": 9001,
      "fuelĠ": 9002,
      "alongsideĠ": 9003,
      "Ohi": 9004,
      "ipp": 9005,
      "ACAAAGG": 9006,
      "TCTAAGG": 9007,
      "edĠ,ĠbutĠ": 9008,
      "efulĠ": 9009,
      "inationĠ": 9010,
      "atmosph": 9011,
      "AGCCTTG": 9012,
      "TATGTAG": 9013,
      "websiteĠ": 9014,
      "thickĠ": 9015,
      "TCTCAAC": 9016,
      "AlexanderĠ": 9017,
      "wed": 9018,
      "ero": 9019,
      "TCTCAAG": 9020,
      "succeed": 9021,
      ".ĠTheyĠwereĠ": 9022,
      "tellsĠ": 9023,
      "ATTAAAG": 9024,
      "AGCAATG": 9025,
      "locationĠ": 9026,
      "sequenceĠ": 9027,
      "calledĠ\"Ġ": 9028,
      "conflictĠ": 9029,
      "Bran": 9030,
      "ATTACAG": 9031,
      "ACCACTG": 9032,
      "TTACTAA": 9033,
      "hapsĠ": 9034,
      "AAATATCTTC": 9035,
      "causeĠ": 9036,
      "TGGGAGAC": 9037,
      "AATAAAATAA": 9038,
      "otyp": 9039,
      "Const": 9040,
      "TGGAGTGCAGTGGC": 9041,
      "fictionĠ": 9042,
      "StormĠ": 9043,
      "Mu": 9044,
      "ATCTAAG": 9045,
      "ATAGTAG": 9046,
      "electricĠ": 9047,
      "Dep": 9048,
      "AGAAAGAG": 9049,
      "TTTCTATT": 9050,
      "GGCGGC": 9051,
      "theor": 9052,
      "Elec": 9053,
      "andĠthenĠ": 9054,
      "TTGCTGG": 9055,
      "greenĠ": 9056,
      "TCACTGCAAGCTCCGCC": 9057,
      "territoryĠ": 9058,
      "focusĠ": 9059,
      "floodingĠ": 9060,
      "Tom": 9061,
      "yearsĠofĠ": 9062,
      "tookĠtheĠ": 9063,
      "tracksĠ": 9064,
      "campĠ": 9065,
      "IrishĠ": 9066,
      "Vid": 9067,
      "nalĠ": 9068,
      "pack": 9069,
      "vel": 9070,
      "inĠH": 9071,
      "ACTTAAAA": 9072,
      "culturalĠ": 9073,
      "TCCATGC": 9074,
      "esh": 9075,
      "TCACAAC": 9076,
      "AAGCAAG": 9077,
      "recru": 9078,
      ";ĠthisĠ": 9079,
      "Ass": 9080,
      "wantedĠ": 9081,
      "ersonĠ": 9082,
      "TGCAGAG": 9083,
      "AGAAATTC": 9084,
      "AGGCAGAG": 9085,
      ".ĠTheĠfilmĠ": 9086,
      "AATCTTG": 9087,
      "flyingĠ": 9088,
      "dy": 9089,
      "TACCCCC": 9090,
      "(ĠC": 9091,
      "ACAAATAA": 9092,
      "Ġ=Ġ=ĠRecep": 9093,
      "ACCATGCCC": 9094,
      "releasedĠonĠ": 9095,
      "key": 9096,
      "19Ġ,Ġ": 9097,
      "occurredĠ": 9098,
      "ĠThereĠ": 9099,
      "ATGAATAA": 9100,
      "steadĠ": 9101,
      "iteĠtheĠ": 9102,
      "TTATTTAA": 9103,
      "TCAGTAG": 9104,
      "Ġ=Ġ=ĠĊ": 9105,
      "AGAĊ": 9106,
      "ThisĠ": 9107,
      "ACATCTC": 9108,
      "TTCACTC": 9109,
      "diedĠinĠ": 9110,
      "entsĠ,Ġ": 9111,
      "orĠofĠtheĠ": 9112,
      "specim": 9113,
      "mentĠofĠtheĠ": 9114,
      "shipĠwasĠ": 9115,
      "scenesĠ": 9116,
      "philos": 9117,
      "BAĠ": 9118,
      "TTGCTAA": 9119,
      "periodĠofĠ": 9120,
      "AGAAACAC": 9121,
      "@-@ĠbasedĠ": 9122,
      "whe": 9123,
      "ityĠ,Ġ": 9124,
      "contactĠ": 9125,
      "endĠtheĠ": 9126,
      "Op": 9127,
      "yerĠ": 9128,
      "TCCTGTC": 9129,
      "TTTTATAA": 9130,
      "TATGGGC": 9131,
      "escor": 9132,
      "AAATAGG": 9133,
      "Ġ=Ġ=ĠBackgroundĠ": 9134,
      "progres": 9135,
      "lor": 9136,
      "TGTATGG": 9137,
      "AGGGCG": 9138,
      "acceptedĠ": 9139,
      "mist": 9140,
      "TGCAGGG": 9141,
      "ingĠtheirĠ": 9142,
      "AGTCAAG": 9143,
      "TGAGAGC": 9144,
      "GGGCGC": 9145,
      "satis": 9146,
      "budgetĠ": 9147,
      "TGCACAC": 9148,
      "ancyĠ": 9149,
      "AGGCTGCAGTG": 9150,
      "treeĠ": 9151,
      "rebel": 9152,
      "umpĠ": 9153,
      "carryĠ": 9154,
      "MinisterĠ": 9155,
      "NoĠ": 9156,
      "choseĠ": 9157,
      "ATATGAAC": 9158,
      "TATAAAAG": 9159,
      "guardĠ": 9160,
      "tex": 9161,
      "demonstr": 9162,
      "TAAGTGG": 9163,
      "didnĠ'tĠ": 9164,
      "MeĠ": 9165,
      "slav": 9166,
      "performedĠ": 9167,
      "HarryĠ": 9168,
      "compil": 9169,
      "TATACCC": 9170,
      "airsĠ": 9171,
      "7thĠ": 9172,
      "arrest": 9173,
      "TTGTTAA": 9174,
      "AAGGAGG": 9175,
      "TGGCTGG": 9176,
      "atedĠbyĠtheĠ": 9177,
      "distingu": 9178,
      "hydro": 9179,
      "crossĠ": 9180,
      "Vill": 9181,
      "TTGGAAGC": 9182,
      "alĠtoĠ": 9183,
      "coreĠ": 9184,
      "ryĠ,Ġ": 9185,
      "AAAACAAC": 9186,
      "AGTTAGG": 9187,
      "Francisc": 9188,
      "ais": 9189,
      "gleĠ": 9190,
      "getsĠ": 9191,
      "TATTAAG": 9192,
      "TGGCGC": 9193,
      "bod": 9194,
      "AGCAACC": 9195,
[...]
